the 73121
to 44141
a 42684
of 42546
and 37115
in 30193
that 26997
I 24269
is 23971
, 20917
you 19794
s 18735
c@@ 18016
. 17963
And 17815
s@@ 17263
in@@ 15882
we 15590
f@@ 15006
it 14764
t@@ 14193
y 14061
a@@ 13801
this 13449
i@@ 12615
-- 12440
e@@ 12318
re@@ 12167
ing 11945
on 11808
p@@ 11281
are 10695
ed 10689
s. 10511
was 10333
d@@ 10153
ar@@ 10008
s, 9913
t 9865
en@@ 9731
for 9724
w@@ 9642
have 9610
m@@ 9583
o@@ 9484
e 9449
b@@ 9207
d 9191
an 8981
an@@ 8867
n@@ 8714
y@@ 8595
on@@ 8589
g@@ 8570
-@@ 8411
st@@ 8373
with 8321
h@@ 8261
at 8032
al@@ 7946
ic@@ 7915
at@@ 7912
about 7652
they 7633
or@@ 7621
as 7590
e, 7454
what 7419
one 7418
all 7405
de@@ 7397
al 7375
be 7284
can 7236
u@@ 7178
th@@ 7130
"@@ 6955
di@@ 6942
S@@ 6875
ti@@ 6800
it@@ 6787
or 6666
se@@ 6615
k@@ 6595
es 6588
ac@@ 6485
v@@ 6468
not 6390
e. 6315
t, 6281
? 6225
y. 6148
ts 6124
: 6071
r@@ 6012
ve 5976
d, 5919
as@@ 5899
un@@ 5873
ex@@ 5856
l@@ 5809
do 5795
is@@ 5715
ou@@ 5595
le@@ 5588
ma@@ 5585
from 5461
t. 5434
er@@ 5370
ch@@ 5354
mo@@ 5342
it's 5291
y, 5289
So 5231
he@@ 5184
be@@ 5168
m 5157
li@@ 5155
con@@ 5122
A@@ 5110
our 5105
like 5058
so 5051
il@@ 5049
my 5035
The 4901
very 4868
just 4847
l 4810
el@@ 4771
ro@@ 4716
but 4685
M@@ 4681
out 4657
people 4630
d. 4584
sp@@ 4579
B@@ 4565
ul@@ 4551
if 4489
C@@ 4488
te@@ 4393
But 4390
going 4390
these 4343
to@@ 4324
si@@ 4318
su@@ 4241
er 4228
ce 4164
es@@ 4163
po@@ 4149
se 4101
lo@@ 4073
by 4057
ge@@ 4003
me@@ 3984
no@@ 3974
wor@@ 3903
which 3873
ate 3849
he 3831
ra@@ 3821
because 3800
." 3779
king 3771
there 3760
k 3731
get 3724
ter@@ 3718
P@@ 3712
H@@ 3696
ation 3683
had 3680
ta@@ 3680
ha@@ 3675
D@@ 3653
We 3641
up 3641
le 3625
ver@@ 3612
ir@@ 3610
when 3609
ly 3596
how 3577
op@@ 3541
This 3533
ar 3514
ne@@ 3504
men@@ 3502
sa@@ 3498
for@@ 3472
ab@@ 3465
think 3420
would 3409
your 3399
really 3373
I'm 3366
see 3365
n 3330
qu@@ 3326
more 3293
pro@@ 3293
It's 3259
ies 3192
om@@ 3169
were 3152
us@@ 3139
has 3137
et 3129
ing, 3127
am@@ 3125
their 3117
who 3100
me 3095
thing 3083
ol@@ 3081
o 3066
ur@@ 3056
ap@@ 3044
R@@ 3028
ing@@ 3011
im@@ 3010
1@@ 3005
's 2996
some 2966
E@@ 2964
ge 2961
th 2951
per@@ 2949
oo@@ 2945
where 2933
ds 2930
that's 2919
vi@@ 2918
ity 2915
You 2913
don't 2902
into 2885
es, 2880
G@@ 2851
then 2851
T@@ 2844
ri@@ 2834
ig@@ 2833
p 2799
all@@ 2793
go 2792
O@@ 2765
wh@@ 2763
x@@ 2761
W@@ 2756
F@@ 2746
will 2745
us 2743
you@@ 2715
la@@ 2714
them 2710
tr@@ 2709
es. 2708
It 2696
bo@@ 2693
do@@ 2685
L@@ 2680
way 2637
z@@ 2631
pre@@ 2629
N@@ 2627
actually 2609
fac@@ 2602
ic 2596
So, 2574
I@@ 2570
know 2558
hi@@ 2553
want 2523
ther@@ 2480
make 2473
da@@ 2472
ing. 2470
ad@@ 2460
h 2455
♫ 2420
been 2408
could 2386
it. 2365
tion 2360
got 2332
gu@@ 2330
st 2320
things 2305
ons 2300
sh@@ 2296
w 2295
fe@@ 2291
other 2281
ther 2278
oun@@ 2263
ks 2246
wa@@ 2226
we@@ 2204
cre@@ 2192
ke@@ 2162
par@@ 2159
ph@@ 2155
little 2145
em@@ 2144
come 2142
sc@@ 2141
com@@ 2138
able 2129
ad 2123
most 2116
pa@@ 2104
than 2090
c 2089
k, 2074
J@@ 2073
ch 2063
ent 2056
ally 2042
ec@@ 2033
something 2021
ell@@ 2018
ting 2011
ving 2003
ine 2003
our@@ 1982
; 1979
ked 1976
br@@ 1969
They 1963
know, 1954
kind 1949
over 1946
ter 1940
ati@@ 1939
look 1934
those 1932
two 1917
the@@ 1917
go@@ 1917
his 1915
man@@ 1910
ie@@ 1906
ist@@ 1903
tra@@ 1901
ted 1899
we're 1894
first 1894
years 1884
gra@@ 1874
Y@@ 1871
new 1852
tion@@ 1847
igh@@ 1843
no 1840
pl@@ 1838
here 1825
year@@ 1812
sur@@ 1806
gr@@ 1805
time 1805
only 1802
tur@@ 1782
ess 1766
pr@@ 1761
buil@@ 1758
now 1748
au@@ 1747
ca@@ 1733
said, 1731
car@@ 1728
iz@@ 1719
ve@@ 1718
on. 1703
sen@@ 1703
m, 1703
ten@@ 1698
on, 1697
also 1697
pe@@ 1697
ion 1692
co@@ 1691
much 1682
cen@@ 1682
en 1680
a, 1679
ment 1678
In 1678
ous 1678
lot 1666
ide@@ 1660
ding 1655
world 1653
some@@ 1653
gen@@ 1647
ho@@ 1643
mar@@ 1643
ical 1642
den@@ 1638
'@@ 1638
Now, 1635
gre@@ 1635
war@@ 1619
take 1619
ru@@ 1615
fi@@ 1612
you're 1612
min@@ 1611
U@@ 1609
sit@@ 1608
What 1605
back 1602
ser@@ 1598
ven@@ 1594
ated 1586
pla@@ 1586
every@@ 1579
stu@@ 1576
se, 1573
g 1572
K@@ 1567
tal@@ 1564
any 1564
k. 1560
a. 1548
col@@ 1540
many 1533
it, 1533
up@@ 1530
need 1523
stor@@ 1519
put 1518
she 1517
gi@@ 1515
0@@ 1514
under@@ 1514
body 1512
rel@@ 1510
lu@@ 1505
ty 1491
ves 1487
happen@@ 1487
there's 1478
ga@@ 1476
even 1472
fin@@ 1472
2@@ 1468
de 1458
proble@@ 1454
bu@@ 1451
ture@@ 1450
tu@@ 1448
right 1442
Wh@@ 1437
chan@@ 1431
use 1427
did 1425
old 1416
tic@@ 1416
fa@@ 1408
mat@@ 1406
any@@ 1405
and@@ 1402
If 1398
kno@@ 1393
around 1392
ff@@ 1388
her@@ 1387
work 1385
tre@@ 1384
mean@@ 1384
its 1381
les 1379
ture 1372
through 1372
every 1368
've 1367
is, 1363
oc@@ 1361
being 1355
ci@@ 1354
tel@@ 1337
different 1332
ble 1331
good 1329
Well, 1328
ally, 1328
.@@ 1327
ying 1324
wer@@ 1323
nu@@ 1321
they're 1321
ef@@ 1320
same 1319
der@@ 1319
thin@@ 1319
ure 1319
est 1307
rec@@ 1306
inter@@ 1300
der 1299
enc@@ 1296
ye@@ 1295
ded 1294
bl@@ 1294
le. 1291
le, 1286
ima@@ 1285
ron@@ 1284
The@@ 1282
ice 1278
ss 1267
called 1263
ste@@ 1259
o, 1255
bel@@ 1254
har@@ 1250
el 1250
down 1248
du@@ 1243
doing 1243
ber@@ 1242
ved 1241
x 1240
m. 1233
That's 1226
ple@@ 1226
quest@@ 1221
bas@@ 1219
hu@@ 1217
technolog@@ 1217
comp@@ 1217
ws 1216
mor@@ 1214
ach@@ 1213
A 1213
her 1210
're 1210
hel@@ 1202
ful 1197
plan@@ 1196
tly 1194
lear@@ 1192
aga@@ 1192
in, 1189
with@@ 1188
j@@ 1185
day 1183
I've 1183
mon@@ 1183
He 1182
sho@@ 1180
te 1180
over@@ 1169
pic@@ 1169
ook 1164
came 1163
loo@@ 1158
sm@@ 1158
f 1157
ation@@ 1156
w, 1155
made 1152
dic@@ 1146
try 1144
Th@@ 1143
three 1136
ms 1135
end 1134
happ@@ 1129
w. 1128
rit@@ 1124
ts. 1123
scien@@ 1121
righ@@ 1121
ea@@ 1120
We@@ 1117
ligh@@ 1116
ating 1116
str@@ 1115
ts, 1115
that, 1113
ys 1112
of@@ 1111
say 1106
pers@@ 1106
ary 1104
bil@@ 1102
r 1100
wer 1100
5@@ 1100
ni@@ 1095
?" 1094
worl@@ 1087
There 1076
" 1075
lif@@ 1074
fu@@ 1072
sel@@ 1071
ast 1071
human 1071
4@@ 1070
cour@@ 1068
'll 1068
vis@@ 1066
ation. 1064
talk 1058
ze 1057
life 1055
ood 1055
V@@ 1051
ant 1050
last 1050
ough@@ 1049
i 1049
sta@@ 1048
peop@@ 1046
est@@ 1037
went 1036
can@@ 1035
ation, 1034
3@@ 1033
ate@@ 1032
lea@@ 1028
why 1028
sort 1024
interest@@ 1023
thing@@ 1022
ep@@ 1017
en, 1017
bra@@ 1015
tell 1008
lin@@ 1008
side 1000
pp@@ 999
tor@@ 998
find 996
Al@@ 991
give 990
ien@@ 990
didn't 990
h, 990
mber 988
ough 980
ers 979
b 978
jo@@ 978
er, 977
se. 975
wat@@ 975
ran@@ 973
ned 965
cu@@ 965
we've 965
cor@@ 963
bac@@ 963
pu@@ 961
TED 960
spec@@ 959
can't 958
show 956
vel@@ 954
used 954
ble@@ 952
gro@@ 951
should 948
mil@@ 947
ful@@ 946
tran@@ 945
started 944
ight 943
tting 938
Afric@@ 937
you. 936
In@@ 935
that. 934
star@@ 934
ill@@ 931
,000 929
big 927
als 926
ion@@ 925
ning 924
et@@ 923
in. 923
't 921
ss@@ 918
say, 918
id 917
19@@ 917
ve, 917
great 915
beg@@ 914
plac@@ 911
cer@@ 910
oul@@ 910
8@@ 908
another 905
real@@ 905
ke 903
wing 899
after 897
An@@ 894
percent 894
That 894
age 892
am 891
fun@@ 885
sy@@ 885
lan@@ 884
duc@@ 882
t? 879
other@@ 874
me, 872
6@@ 869
ear@@ 868
ous@@ 867
9@@ 866
self@@ 865
comple@@ 863
tru@@ 862
bit 862
led 862
this. 861
t's 861
ps 861
Americ@@ 859
compu@@ 859
never 859
own 858
ven 854
lar@@ 853
cur@@ 852
How 851
produc@@ 851
ve. 850
ger@@ 849
sol@@ 846
roo@@ 846
ess@@ 844
coun@@ 841
change 840
ely 838
possi@@ 838
whole 837
mis@@ 836
ard 835
ations 835
gin@@ 834
ges 834
shi@@ 834
ses 833
start 833
does 833
ster@@ 832
idea 832
looking 831
next 828
," 827
toge@@ 827
bre@@ 826
might 825
n't 823
ge. 823
er. 823
ase 820
red 820
struc@@ 818
dre@@ 816
cit@@ 816
bi@@ 815
5 813
cul@@ 813
mu@@ 812
here, 811
vir@@ 810
world. 810
countr@@ 810
stand 809
story 806
ence 806
int 806
Because 805
ust 803
few 803
still 803
part 801
When 801
dit@@ 800
incre@@ 799
’@@ 797
cl@@ 794
ity. 794
each 792
ob@@ 790
comes 789
ge, 789
ies. 788
mus@@ 788
commun@@ 787
7@@ 787
fl@@ 787
devel@@ 786
mer@@ 785
them. 783
ago@@ 781
id@@ 781
pen@@ 781
partic@@ 779
Now 778
secon@@ 777
fic@@ 776
tw@@ 772
read@@ 767
Thank 766
kid@@ 765
loc@@ 765
nec@@ 764
doesn't 764
gener@@ 763
ty@@ 763
here. 762
ies, 761
there. 756
disc@@ 756
st, 754
he's 753
ever 752
e's 751
between 751
dec@@ 751
ically 750
ly, 750
reas@@ 748
childr@@ 748
out@@ 747
way, 746
mp@@ 746
wn 745
found 744
off 743
thought 736
spac@@ 736
ce, 735
me. 733
! 732
million 731
al, 731
ger 730
0 729
this, 728
cap@@ 727
al. 725
cr@@ 724
projec@@ 722
system@@ 722
gl@@ 720
On@@ 719
cle@@ 719
ably 719
por@@ 717
sion 717
proc@@ 716
ist 716
ates 715
vol@@ 714
ied 714
long 712
kin@@ 712
ieve 711
times 711
wanted 710
ver 710
ys@@ 710
sk@@ 710
said 708
ybe 708
clo@@ 707
time, 706
pec@@ 705
form@@ 704
arch@@ 704
ish 704
Talk 700
important 699
dn't 699
thing. 699
lat@@ 695
ys, 694
call 694
tion. 694
exper@@ 693
time. 692
ite 691
val@@ 691
ome 690
ep 688
solu@@ 688
stan@@ 686
trying 685
vie@@ 682
ce. 680
boo@@ 678
using 678
differ@@ 677
ral 675
re 675
Subtitles 672
Transcript: 672
OK@@ 672
off@@ 671
pri@@ 670
univer@@ 668
may 668
real 667
place 666
bor@@ 666
amp@@ 666
self 666
energ@@ 664
ong 664
I'll 663
prob@@ 663
sim@@ 662
are@@ 662
del@@ 662
always 661
ging 659
No@@ 659
econom@@ 658
dollar@@ 656
low 656
Ch@@ 654
less 654
sub@@ 654
what's 654
fil@@ 654
There's 652
olog@@ 651
coming 650
ity, 650
day, 648
10 648
th. 647
act 647
before 646
better 646
cep@@ 646
famil@@ 645
stand@@ 645
quite 645
mone@@ 643
abil@@ 643
tri@@ 642
Ear@@ 641
ft 639
bus@@ 638
hop@@ 637
00 636
en. 636
tal 632
lec@@ 631
mak@@ 631
inn@@ 629
lik@@ 629
char@@ 627
il 622
Indi@@ 621
han@@ 620
ds, 617
live 616
ack 615
St@@ 614
ins 612
ali@@ 612
ed@@ 610
nit@@ 609
pol@@ 609
ational 608
ey@@ 607
my@@ 607
I'@@ 605
down@@ 605
allo@@ 603
ans 599
Ma@@ 598
us. 596
ach 595
ters 594
pret@@ 592
sor@@ 591
ree@@ 590
soci@@ 590
man 589
Go@@ 588
mi@@ 586
sl@@ 585
fig@@ 584
ound 584
lob@@ 583
ed. 583
ed, 583
wel@@ 581
een 581
ch. 580
ame 576
inform@@ 573
op 572
pat@@ 570
lim@@ 569
lon@@ 568
design 568
water 565
wn@@ 562
pie@@ 561
ba@@ 561
dri@@ 560
stic@@ 560
hou@@ 560
ir 559
organ@@ 559
sig@@ 558
ju@@ 558
vo@@ 556
st. 556
Le@@ 554
wee@@ 552
nor@@ 552
chil@@ 552
ssi@@ 551
og@@ 546
win@@ 546
ere 545
ug@@ 541
minu@@ 541
ator@@ 537
acti@@ 536
ry 534
us, 533
pe 533
ker@@ 530
don@@ 529
syste@@ 529
Mar@@ 526
ten 525
dan@@ 525
... 522
sion@@ 521
res@@ 520
dra@@ 520
air@@ 519
wi@@ 516
is. 515
ome@@ 515
wonder@@ 507
design@@ 506
bro@@ 506
dro@@ 506
posit@@ 505
itu@@ 505
af@@ 502
presen@@ 502
natu@@ 502
plic@@ 499
wis@@ 499
medi@@ 497
an, 497
lion 497
contro@@ 495
best 494
20 494
50 493
pas@@ 493
half 493
they@@ 491
actu@@ 491
dy 491
though@@ 490
fer@@ 489
ken 486
contin@@ 485
school@@ 485
ris@@ 482
um 482
ell, 482
mach@@ 482
ei@@ 482
s? 481
stri@@ 481
lit@@ 480
ool@@ 478
va@@ 478
pop@@ 478
ill 476
wan@@ 474
fec@@ 471
tit@@ 469
soc@@ 466
En@@ 463
ter. 462
dat@@ 462
vide@@ 462
speci@@ 459
hand@@ 458
Chin@@ 456
rien@@ 452
tro@@ 450
per 450
na@@ 450
goe@@ 448
200@@ 448
studen@@ 447
oe@@ 444
direc@@ 444
progra@@ 444
var@@ 444
mes 443
sin@@ 440
din@@ 439
ren@@ 438
dr@@ 438
2 436
effec@@ 435
simp@@ 432
hy@@ 428
eer@@ 425
wal@@ 423
top 423
succ@@ 421
oce@@ 419
New 418
fra@@ 417
ter, 417
mid@@ 415
data 415
nam@@ 414
g, 412
pan@@ 412
ele@@ 410
de, 410
cam@@ 408
indi@@ 407
ari@@ 407
uro@@ 405
import@@ 404
20@@ 403
ale 401
was@@ 400
de. 400
that@@ 399
objec@@ 399
wil@@ 397
van@@ 393
leg@@ 388
00@@ 387
polit@@ 386
g. 384
bar@@ 383
[@@ 383
' 382
atu@@ 377
ag@@ 376
experi@@ 376
evolu@@ 376
ur 375
ich@@ 375
top@@ 373
comm@@ 372
ak@@ 370
hor@@ 369
port@@ 367
stre@@ 367
dig@@ 366
100 365
fir@@ 365
indu@@ 364
mb@@ 363
bur@@ 361
jec@@ 360
log@@ 359
ways 358
plo@@ 357
materi@@ 355
cont@@ 353
biolog@@ 352
ut 351
ts@@ 351
ank 350
ban@@ 349
t-@@ 348
mm@@ 348
] 348
an. 347
robo@@ 345
ik@@ 344
bli@@ 340
school 340
theor@@ 340
8 338
ze@@ 337
,@@ 336
plane@@ 335
mom@@ 333
net@@ 333
p. 331
omen 330
resul@@ 329
30 326
ie 321
den 320
land@@ 314
kel@@ 313
ond 312
ich 311
thre@@ 311
land 310
oon 307
ere's 305
ese 302
thr@@ 301
open 300
ric@@ 299
ee@@ 298
open@@ 297
TED@@ 297
bet@@ 297
eds 294
Ok@@ 294
ont@@ 286
ben@@ 283
befor@@ 282
was, 282
vor@@ 281
Su@@ 280
wit@@ 279
De@@ 275
Ne@@ 274
ool 269
1 268
u 267
men 264
oor@@ 263
desig@@ 262
7 261
dru@@ 260
alle@@ 259
3 258
volu@@ 257
scri@@ 257
del 256
net 255
Z@@ 253
moment 251
oor 249
bin@@ 248
at's 248
tech@@ 246
kl@@ 245
4 245
em 245
tho@@ 242
spre@@ 241
6 239
alk 239
uni@@ 239
ding@@ 236
ever@@ 235
publ@@ 234
ders 233
Af@@ 232
stru@@ 230
uit@@ 229
ton@@ 228
fan@@ 228
ffer@@ 227
Ste@@ 227
vin@@ 223
stop@@ 221
gan@@ 215
gen 214
pt 214
To@@ 212
S 211
t: 211
tle 209
let@@ 208
als@@ 205
gel@@ 204
met 204
sn@@ 199
V 198
te, 198
eri@@ 197
dol@@ 196
9 196
ker 196
!@@ 194
organis@@ 193
om 193
Ho@@ 191
fam@@ 191
fo@@ 190
sla@@ 190
sle@@ 189
spe@@ 187
hoo@@ 187
eld 181
sch@@ 178
ld 178
tie@@ 170
enor@@ 168
hal@@ 165
te. 164
D 163
id. 160
vert@@ 159
Q@@ 157
ould 153
id, 147
ite@@ 145
die 145
time@@ 145
lar 142
perc@@ 139
ens 137
ier 136
/@@ 136
X@@ 136
sten 135
ole 135
mani@@ 134
z 133
Ver@@ 129
ste 128
el, 128
beca@@ 127
ig 127
C 126
xt 123
tten 123
el. 122
ken@@ 122
pra@@ 121
quit@@ 120
door@@ 117
T 116
door 110
lie@@ 110
rom 107
mee@@ 105
zon@@ 102
scrip@@ 100
q@@ 94
ll 93
pun@@ 90
suc@@ 90
eig@@ 86
$@@ 85
na 85
onder 85
P 83
zen 82
je@@ 80
was. 80
ven, 80
onom@@ 77
ie. 77
lie 75
som@@ 74
ij@@ 74
mand 74
K 73
twe@@ 73
ander@@ 72
O 71
ie, 71
za@@ 67
]@@ 67
..@@ 64
ko@@ 64
len 64
van 63
ten, 62
zi@@ 61
dit 60
den, 59
men. 52
oon@@ 52
ven. 52
q 52
kle@@ 51
aa@@ 51
den. 49
?@@ 48
gen, 47
B 47
zo@@ 46
E 46
calle@@ 45
aten 45
M 44
Beca@@ 44
X 43
R 43
pen 43
erg@@ 43
ten. 42
kan@@ 42
het@@ 40
rik@@ 40
hier@@ 40
N 40
does@@ 39
lig@@ 38
&@@ 38
;@@ 38
ged@@ 37
L 36
v 36
- 35
ert 35
ien 35
:@@ 35
weet 34
onge@@ 34
sen 34
uit 34
Bec@@ 33
gen. 33
ings@@ 33
dig 33
ken, 33
G 33
en? 33
stem@@ 33
[ 32
ik 30
nolog@@ 30
een@@ 30
tie 29
spel@@ 29
ken. 27
nie@@ 27
heel 27
H 26
zu@@ 26
Tran@@ 25
F 25
best@@ 25
onder@@ 24
Y 23
toe@@ 23
gev@@ 23
sne@@ 23
ou 22
jar@@ 21
Q 21
oug@@ 21
ga 20
hoe 20
groo@@ 20
af 19
000 18
% 18
é@@ 17
U 17
eens 16
Sub@@ 16
isch@@ 16
bete@@ 15
gens 15
moo@@ 15
Z 15
nd 15
had@@ 15
ein@@ 15
+ 15
/ 15
probe@@ 14
titles 14
lich@@ 13
geb@@ 13
mensel@@ 13
dus 13
eel 12
J 12
anders 12
ö@@ 12
mee 12
W 11
) 11
wel 11
De 11
#@@ 11
het 10
onze 10
elen 9
– 9
á@@ 9
dan 9
é 9
— 9
eft 9
stel@@ 8
beet@@ 7
TE@@ 7
kwa@@ 7
Ze 7
j 7
pen. 7
twee@@ 7
kun@@ 7
cht 7
erd 6
hoe@@ 6
stell@@ 6
zel@@ 6
bare 6
ó 6
bere@@ 6
ü@@ 6
zor@@ 5
ù 5
atie@@ 5
(@@ 5
zie@@ 5
vand@@ 5
je 5
ende 5
kon 5
@@@ 5
hem 5
ù@@ 4
ñ@@ 4
í@@ 4
aan@@ 4
kra@@ 4
zo 4
leven 4
Amer@@ 4
nu 4
roe@@ 4
è@@ 4
ã@@ 4
aar@@ 3
ige 3
zie 3
hen 3
kor@@ 3
=@@ 3
wat 3
ó@@ 3
beel@@ 3
+@@ 3
aal@@ 3
iets 3
ä@@ 3
kan 3
^@@ 3
vre@@ 3
raa@@ 3
ben 2
atie 2
â@@ 2
ï@@ 2
aat@@ 2
“@@ 2
” 2
Afrik@@ 2
toe 2
–@@ 2
scha@@ 2
cht@@ 2
samen@@ 2
* 2
É@@ 2
jon@@ 2
aan, 2
dt 2
alles 2
.000 1
aan 1
aal 1
Je 1
erg 1
ele 1
gele@@ 1
kk@@ 1
ú@@ 1
bij@@ 1
zal 1
leven@@ 1
elk 1
º@@ 1
heb@@ 1
˚ 1
’ 1
…@@ 1
ische 1
gesch@@ 1
isch 1
geme@@ 1
ò@@ 1
à@@ 1
ê@@ 1
√@@ 1
±@@ 1
%@@ 1
—@@ 1
£@@ 1
# 1
hun 1
ā@@ 1
aar. 1
ç@@ 1
Ç@@ 1
je, 1
jes 1
kop@@ 1
= 1
zeg@@ 1
