the 73121
to 44141
of 42546
a 41030
and 36908
in 28608
that 26997
I 23908
is 23740
you 19794
And 17815
we 15590
it 14760
this 13449
-- 12440
, 10855
on 10468
was 10333
are 10001
. 9829
for 9724
have 9610
s 9447
ing 8610
with 8321
y 8303
s@@ 8282
at 8032
an 7985
in@@ 7918
a@@ 7742
about 7652
they 7633
what 7419
be 7284
as 7253
can 7236
s, 7199
all 6910
f@@ 6904
s. 6823
ed 6789
c@@ 6755
re@@ 6629
t@@ 6585
one 6534
-@@ 6346
al 6149
not 6134
de@@ 6125
do 5795
or 5747
p@@ 5622
i@@ 5593
from 5461
"@@ 5450
S@@ 5449
it's 5291
t 5245
So 5231
y@@ 5106
ar@@ 5088
like 5058
so 5051
my 5035
en@@ 4934
w@@ 4889
very 4868
just 4847
b@@ 4844
it@@ 4834
e@@ 4810
y, 4774
but 4685
e, 4672
people 4630
e 4627
g@@ 4626
The 4595
o@@ 4592
ts 4544
d@@ 4532
e. 4528
an@@ 4518
m@@ 4508
if 4489
our 4472
But 4390
going 4390
y. 4383
n@@ 4373
these 4343
d, 4268
t, 4143
out 4141
es 4107
r@@ 4091
? 4072
by 4057
: 4046
u@@ 3946
al@@ 3930
t. 3888
st@@ 3873
which 3873
because 3800
d. 3773
di@@ 3765
there 3760
get 3724
ic@@ 3709
had 3680
at@@ 3676
or@@ 3670
We 3641
up 3641
when 3609
how 3577
This 3533
ac@@ 3495
se@@ 3490
think 3420
would 3409
your 3399
on@@ 3382
really 3373
I'm 3366
see 3365
li@@ 3361
he 3358
er 3339
ation 3299
more 3293
A@@ 3287
It's 3259
B@@ 3208
C@@ 3194
si@@ 3194
un@@ 3180
were 3152
con@@ 3137
has 3137
their 3117
who 3100
me 3095
h@@ 3063
ate 3017
ne@@ 2997
th@@ 2995
some 2966
." 2958
for@@ 2939
where 2933
that's 2919
You 2913
don't 2902
k@@ 2888
into 2885
M@@ 2885
ch@@ 2860
then 2851
as@@ 2832
le@@ 2831
is@@ 2807
l@@ 2774
will 2745
us 2743
them 2710
It 2696
ma@@ 2659
es, 2616
actually 2609
ex@@ 2601
er@@ 2595
be@@ 2575
So, 2574
know 2558
T@@ 2556
P@@ 2544
want 2523
el@@ 2515
go 2505
ul@@ 2481
make 2473
♫ 2420
been 2408
ly 2408
sp@@ 2406
ro@@ 2396
could 2386
us@@ 2372
ra@@ 2371
it. 2365
k 2360
tion 2360
es. 2356
d 2348
la@@ 2340
D@@ 2334
got 2332
am@@ 2331
ri@@ 2324
ter@@ 2314
things 2305
ds 2301
other 2281
pro@@ 2277
ve 2276
es@@ 2267
G@@ 2266
's 2249
ap@@ 2247
ing, 2235
n 2233
im@@ 2230
ad@@ 2227
R@@ 2209
il@@ 2197
v@@ 2195
E@@ 2184
W@@ 2174
L@@ 2174
way 2169
m 2162
lo@@ 2162
little 2145
able 2129
ing. 2116
ti@@ 2115
F@@ 2112
pa@@ 2104
H@@ 2092
than 2090
me@@ 2070
no@@ 2065
l 2051
ent 2047
ally 2042
something 2021
ting 2011
mo@@ 2011
ity 2004
O@@ 1982
; 1979
They 1963
know, 1954
ha@@ 1950
kind 1949
over 1946
o 1945
to@@ 1934
look 1934
those 1932
se 1928
ol@@ 1924
te@@ 1921
I@@ 1917
two 1917
su@@ 1915
his 1915
ab@@ 1912
ur@@ 1908
ted 1899
we're 1894
first 1894
ou@@ 1893
years 1884
qu@@ 1872
ge 1855
no 1840
here 1825
thing 1813
time 1805
et 1805
only 1802
ce 1800
ies 1798
ic 1793
tr@@ 1781
wor@@ 1779
com@@ 1775
now 1748
N@@ 1743
said, 1731
fe@@ 1723
1@@ 1709
th 1708
most 1702
also 1697
we@@ 1696
ing@@ 1690
sh@@ 1686
par@@ 1686
much 1682
a, 1678
In 1678
z@@ 1672
lot 1666
ir@@ 1659
sa@@ 1656
world 1653
ge@@ 1652
p 1651
ical 1642
op@@ 1640
wa@@ 1636
Now, 1635
ar 1620
take 1619
x@@ 1617
you're 1612
come 1605
What 1605
back 1602
bo@@ 1581
w 1575
any 1564
h 1552
new 1550
a. 1548
many 1533
it, 1533
need 1523
put 1518
she 1517
ks 1513
sc@@ 1502
car@@ 1500
po@@ 1497
there's 1478
pe@@ 1477
even 1472
pre@@ 1470
he@@ 1461
hi@@ 1453
ca@@ 1451
tu@@ 1448
co@@ 1446
do@@ 1442
right 1442
K@@ 1440
use 1427
did 1425
ke@@ 1410
k, 1409
If 1398
around 1392
le 1385
work 1385
its 1381
les 1379
through 1372
every 1368
is, 1363
being 1355
per@@ 1349
ver@@ 1337
min@@ 1333
different 1332
good 1329
gre@@ 1323
ment 1322
they're 1321
same 1319
em@@ 1316
ated 1302
da@@ 1295
ded 1294
chan@@ 1294
bl@@ 1294
tra@@ 1289
on. 1284
ice 1278
de 1277
igh@@ 1275
ig@@ 1270
br@@ 1267
vi@@ 1265
called 1263
ist@@ 1258
om@@ 1258
ter 1256
on, 1249
down 1248
doing 1243
ved 1241
man@@ 1240
all@@ 1235
fa@@ 1227
That's 1226
ru@@ 1224
mor@@ 1214
cre@@ 1213
ph@@ 1211
her 1210
ding 1203
ga@@ 1202
ion 1199
go@@ 1199
gen@@ 1198
k. 1186
I've 1183
bu@@ 1182
He 1182
inter@@ 1178
gr@@ 1172
king 1162
ec@@ 1160
ve@@ 1160
tic@@ 1159
st 1159
tre@@ 1156
made 1152
ons 1149
sur@@ 1146
ser@@ 1144
wh@@ 1141
m, 1138
c 1138
ef@@ 1137
three 1136
oun@@ 1134
2@@ 1131
col@@ 1129
ine 1129
ves 1129
ta@@ 1128
ts. 1123
den@@ 1123
ous 1118
ating 1116
fin@@ 1116
ts, 1115
that, 1113
ther@@ 1112
gu@@ 1110
m. 1108
say 1106
ary 1104
?" 1094
ad 1094
men@@ 1083
her@@ 1082
There 1076
fac@@ 1076
est 1075
tion@@ 1072
human 1071
ation. 1064
fi@@ 1061
talk 1058
life 1055
gi@@ 1055
J@@ 1054
last 1050
sta@@ 1048
i 1047
A 1046
ally, 1046
enc@@ 1044
ant 1042
Well, 1042
ying 1041
went 1036
ho@@ 1034
ation, 1034
oo@@ 1034
3@@ 1033
sen@@ 1030
gra@@ 1029
why 1028
pr@@ 1028
ch 1027
sort 1024
V@@ 1023
war@@ 1020
pl@@ 1019
ep@@ 1017
tal@@ 1013
oc@@ 1013
tell 1008
lin@@ 1004
ble 998
find 996
give 990
didn't 990
h, 990
se, 986
any@@ 985
ers 979
b 978
.@@ 978
old 976
se. 975
end 974
and@@ 969
ide@@ 966
te 966
we've 965
cor@@ 963
TED 960
ty 958
can't 958
show 956
used 954
stor@@ 948
should 948
rel@@ 948
plan@@ 945
started 944
ci@@ 944
ight 943
ws 942
you. 936
ked 935
mon@@ 935
that. 934
star@@ 934
ven@@ 931
ill@@ 931
,000 929
big 927
mar@@ 927
ning 924
et@@ 923
ni@@ 918
say, 918
id 917
ve, 917
great 915
iz@@ 908
sho@@ 906
" 905
another 905
ke 903
real@@ 900
wing 899
after 897
percent 894
That 894
age 892
ste@@ 892
ess 891
'@@ 881
under@@ 878
me, 872
ther 869
mat@@ 868
came 864
tly 863
sit@@ 863
bit 862
led 862
this. 861
happ@@ 860
le, 859
never 859
own 858
body 854
ving 853
x 853
cur@@ 852
our@@ 851
How 851
produc@@ 851
ve. 850
ie@@ 850
sol@@ 846
ess@@ 844
change 840
ely 838
whole 837
4@@ 836
mis@@ 836
ations 835
ges 834
ses 833
start 833
ms 833
does 833
idea 832
looking 831
ten@@ 831
g 830
est@@ 829
next 828
," 827
day 826
might 825
ge. 823
red 820
tru@@ 817
Th@@ 817
pic@@ 816
try 814
cul@@ 813
here, 811
world. 810
ence 806
Because 805
few 803
still 803
vis@@ 801
part 801
When 801
ach@@ 794
ity. 794
each 792
comes 789
ge, 789
ies. 788
7@@ 787
in, 785
ss 783
them. 783
der@@ 781
tor@@ 779
Now 778
ple@@ 777
some@@ 776
Wh@@ 774
rec@@ 774
lea@@ 773
every@@ 768
Thank 766
loc@@ 765
fu@@ 764
doesn't 764
gener@@ 763
here. 762
ies, 761
ran@@ 758
there. 756
st, 754
he's 753
ever 752
between 751
ly, 750
over@@ 748
way, 746
mp@@ 746
found 744
ima@@ 744
off 743
str@@ 739
thought 736
ce, 735
me. 733
! 732
million 731
al, 731
ster@@ 730
ger 730
this, 728
cap@@ 727
al. 725
happen@@ 725
har@@ 724
system@@ 722
jo@@ 718
19@@ 718
por@@ 717
sion 717
ist 716
ates 715
ss@@ 715
ied 714
sel@@ 713
5@@ 713
long 712
ture 711
6@@ 711
wanted 710
sk@@ 710
am 709
said 708
clo@@ 707
ful@@ 707
time, 706
pp@@ 705
form@@ 704
ish 704
ati@@ 702
Y@@ 701
Talk 700
lu@@ 700
important 699
thing. 699
cen@@ 698
call 694
tion. 694
time. 692
ite 691
gro@@ 689
als 688
U@@ 687
stan@@ 686
up@@ 685
trying 685
0@@ 684
hel@@ 684
bil@@ 680
ce. 680
the@@ 679
boo@@ 678
using 678
differ@@ 677
in. 673
Subtitles 672
Transcript: 672
ood 672
off@@ 671
pri@@ 670
id@@ 669
may 668
9@@ 667
real 667
place 666
bor@@ 666
self 666
ye@@ 665
I'll 663
sm@@ 663
sim@@ 662
are@@ 662
cu@@ 661
always 661
technolog@@ 660
ging 659
le. 658
ber@@ 658
econom@@ 658
low 656
less 654
sub@@ 654
what's 654
There's 652
pu@@ 652
coming 650
ity, 650
't 649
10 648
th. 647
before 646
better 646
quite 645
tri@@ 642
took 639
au@@ 638
'd 638
understand 636
working 634
four 633
These 632
ate@@ 632
develop@@ 631
year 630
ger@@ 629
fl@@ 629
en, 628
er, 628
cer@@ 626
writ@@ 626
Afric@@ 626
plac@@ 623
ps 623
il 622
han@@ 620
mil@@ 620
tion, 619
en. 619
tic 619
you, 618
mer@@ 618
fact, 618
ds, 617
live 616
other@@ 615
ack 615
er. 615
ear@@ 613
ins 612
struc@@ 612
ali@@ 612
o, 612
ed@@ 610
getting 610
dic@@ 610
ligh@@ 610
pol@@ 609
ational 608
ey@@ 607
my@@ 607
ative 607
proble@@ 607
ell@@ 606
tions 605
ces 605
down@@ 605
allo@@ 603
ble@@ 602
bi@@ 600
ans 599
My 598
Ma@@ 598
now, 598
ged 598
tw@@ 596
us. 596
fic@@ 596
I'd 595
ach 595
der 594
power@@ 594
love 592
making 591
sor@@ 591
way. 590
done 590
ful 590
point 590
man 589
believe 589
world, 588
course, 587
mi@@ 586
8@@ 585
th, 585
sl@@ 585
ound 584
ed. 583
ed, 583
sha@@ 583
pla@@ 582
ough@@ 581
y? 581
One 580
comp@@ 578
ron@@ 576
there, 576
out, 574
too 574
create 573
tran@@ 571
ree@@ 571
r 570
pat@@ 570
probably 569
lon@@ 568
design 568
high@@ 568
water 565
them, 565
one. 564
you've 564
feel 564
out. 563
ation@@ 562
wn@@ 562
An@@ 561
ba@@ 561
dri@@ 560
stic@@ 560
ious 560
story 559
Americ@@ 558
ju@@ 558
w, 557
technology 557
vo@@ 556
elec@@ 556
st. 556
lar@@ 555
maybe 554
art 553
nor@@ 552
him 552
talking 551
du@@ 551
five 551
ase 550
ue 547
roo@@ 547
ions 546
problem 545
foo@@ 545
spec@@ 543
In@@ 542
ments 541
cit@@ 541
e? 541
minu@@ 541
j@@ 540
ell 539
mus@@ 539
We're 538
become 537
ator@@ 537
one, 537
let 537
ics 536
en 534
ion@@ 534
ry 534
ings 534
us, 533
pretty 533
ast 531
don@@ 529
system 529
ff@@ 528
commun@@ 528
human@@ 526
connec@@ 526
Mar@@ 526
dan@@ 525
photo@@ 525
ure 522
... 522
sion@@ 521
build 520
dra@@ 520
Al@@ 519
nu@@ 519
help 518
fre@@ 518
countr@@ 517
ized 517
wi@@ 516
big@@ 516
number 516
without 516
is. 515
wed 515
bra@@ 515
act 513
kids 512
air@@ 511
coun@@ 511
t? 511
out@@ 509
makes 509
years, 508
bas@@ 507
design@@ 506
light 506
bro@@ 506
dro@@ 506
posit@@ 505
eas@@ 505
possi@@ 505
brea@@ 503
poin@@ 503
af@@ 502
brain 500
worl@@ 499
plic@@ 499
wis@@ 499
mean, 498
an, 497
thing, 497
person 497
've 496
wat@@ 496
small 495
contro@@ 495
best 494
ob@@ 494
20 494
vil@@ 493
50 493
everything 493
pas@@ 493
half 493
educ@@ 493
question 493
fil@@ 493
olog@@ 492
cell@@ 492
thinking 491
means 491
they@@ 491
ess. 489
shi@@ 489
can@@ 488
ters 486
face 486
across 484
having 484
second 483
wn 482
quest@@ 482
ris@@ 482
um 482
respon@@ 482
ei@@ 482
wom@@ 482
s? 481
move 480
seen 480
such 478
set 477
ive 477
ill 476
ment. 476
sts 475
gl@@ 475
wer@@ 474
all, 474
power 474
wan@@ 474
She 473
interesting 473
children 472
All 472
phys@@ 472
graph@@ 472
w. 471
pen@@ 471
tit@@ 469
away 468
times 468
ess, 467
dre@@ 465
you@@ 465
tain@@ 465
ply 464
tive 463
equ@@ 463
fun@@ 463
ter. 462
dat@@ 462
ment, 462
ask 462
ks. 461
bac@@ 461
tim@@ 460
environ@@ 459
ture. 459
speci@@ 459
hand@@ 458
well 458
serv@@ 454
form 454
vel@@ 454
ver 452
building 452
'll 450
per 450
buil@@ 449
Ch@@ 449
things. 448
ion, 448
dise@@ 448
200@@ 448
cra@@ 448
ard 447
studen@@ 447
goes 447
ds. 447
e's 446
popul@@ 446
scienti@@ 446
incredi@@ 445
looks 445
direc@@ 444
progra@@ 444
life. 443
mes 443
acc@@ 442
saw 442
told 440
like, 440
ago, 439
issu@@ 439
ren@@ 438
wee@@ 438
enough 438
tern@@ 437
’@@ 437
years. 436
proc@@ 436
va@@ 436
sense 436
ther, 436
effec@@ 435
energy 434
who@@ 434
bring 434
na@@ 434
thin@@ 433
oe@@ 432
happened 431
projec@@ 431
far@@ 429
h. 429
hy@@ 428
tur@@ 428
people, 427
ome 426
both 426
vol@@ 425
Why 424
tell@@ 423
ned 423
up. 423
wal@@ 423
top 423
up, 422
ome@@ 422
fact 422
billion 422
succ@@ 421
anything 420
ion. 419
As 419
socie@@ 419
For 419
oce@@ 419
New 418
St@@ 417
hea@@ 417
together 417
side 417
dollars 417
ter, 417
mu@@ 416
quic@@ 416
mid@@ 415
do. 415
them@@ 415
rese@@ 415
data 415
teach@@ 415
mental 414
o. 414
almost 414
g, 412
ici@@ 412
pan@@ 412
play 412
ele@@ 410
toge@@ 410
cr@@ 410
de, 410
within 410
frien@@ 409
No@@ 409
ze 409
win@@ 409
though 409
day, 408
spac@@ 408
whether 407
sup@@ 407
ari@@ 407
left 406
arch@@ 406
social 406
hed 405
ea@@ 405
langu@@ 405
money 404
again, 404
vie@@ 404
tom@@ 403
ities 403
keep 403
20@@ 403
They're 402
ones 402
hu@@ 401
looked 401
ability 401
ale 401
de. 400
simple 399
that@@ 399
line 399
ks, 399
objec@@ 399
ore 398
ien@@ 398
val@@ 398
5 397
bad 397
Bu@@ 397
wil@@ 397
stu@@ 397
United 396
famil@@ 396
el 396
ance 396
spea@@ 396
much. 396
mean@@ 395
pris@@ 395
think, 395
cro@@ 395
stuff 394
so, 394
sure 393
Inter@@ 393
let's 393
re. 393
people. 392
so@@ 391
Indi@@ 391
gir@@ 391
ugh@@ 390
ong 389
cho@@ 389
duc@@ 389
single 389
turn 389
hour@@ 389
heard 388
couple 388
solu@@ 388
leg@@ 388
re 388
six 387
dit@@ 386
polit@@ 386
mean 386
ort 386
ral 386
van@@ 386
gest 385
sing 385
flo@@ 385
information 384
g. 384
person@@ 384
reason 384
asked 384
kno@@ 384
global 383
food 383
bar@@ 383
[@@ 383
' 382
ically 380
ture, 380
cle@@ 379
kinds 379
living 378
well, 377
o-@@ 377
appro@@ 376
ize 376
tes 376
ag@@ 376
evolu@@ 376
pul@@ 376
already 375
tun@@ 375
ur 375
Mo@@ 374
work. 374
trans@@ 374
top@@ 373
run@@ 372
sig@@ 372
comm@@ 372
pec@@ 371
bot@@ 371
basically 370
ak@@ 370
hor@@ 369
under 368
now. 368
right? 368
grap@@ 368
hard 367
mark@@ 367
inste@@ 367
stre@@ 367
must 366
100 365
fir@@ 365
mag@@ 365
reas@@ 364
high 364
gets 364
shar@@ 363
res 363
centur@@ 363
mb@@ 363
pur@@ 362
char@@ 362
bur@@ 361
"I 361
dle 360
science 360
jec@@ 360
s: 360
all. 360
’s 360
stri@@ 360
log@@ 359
d's 359
ways 358
selves 358
del@@ 358
cop@@ 357
nothing 357
today 357
challen@@ 357
compan@@ 357
plo@@ 357
learn 356
ther. 356
until 356
bly 356
fic 356
materi@@ 355
e: 354
completely 354
ling 354
life, 354
incre@@ 354
cont@@ 353
picture 353
Ear@@ 353
ves. 352
isn't 352
biolog@@ 352
ut 351
hundre@@ 351
ts@@ 351
read 351
ank 350
ble. 350
bit@@ 350
clas@@ 350
ban@@ 349
U.@@ 349
says, 349
marke@@ 349
ward 349
ster 349
comple@@ 349
presen@@ 349
ents 349
individu@@ 348
ir 348
foc@@ 348
t-@@ 348
liter@@ 348
] 348
school@@ 348
importan@@ 347
an. 347
flu@@ 347
re, 347
bel@@ 346
at, 345
ys, 345
ship 345
lat@@ 345
robo@@ 345
inside 345
hom@@ 344
ck 343
ik@@ 343
duce 342
once 342
rather 342
care 342
taking 342
e-@@ 342
cl@@ 341
course 341
while 341
far 341
f 340
somebody 340
year@@ 340
even@@ 340
clear 340
standing 340
pe 340
atu@@ 340
school 340
theor@@ 340
at. 339
piece 339
figure 339
wher@@ 338
fer@@ 338
ven 338
ideas 337
built 337
dom@@ 337
seem@@ 337
,@@ 336
hope 336
plane@@ 335
cli@@ 335
dis@@ 335
Go@@ 335
ze@@ 335
medi@@ 334
expec@@ 334
10@@ 334
tor 333
ial 333
possible 333
net@@ 333
And, 333
rong 332
lec@@ 332
young 332
computer 332
dge 331
pres@@ 331
p. 331
exactly 331
happens 331
beautiful 331
ly. 330
gar@@ 330
country 330
machin@@ 330
vir@@ 330
discover@@ 329
resul@@ 329
tting 328
wasn't 328
space 328
hear@@ 328
milli@@ 327
Then 326
Let's 326
30 326
lots 326
acti@@ 325
fol@@ 325
ish@@ 325
taken 325
var@@ 325
ys 324
OK, 324
answer 324
inven@@ 323
order 323
bre@@ 323
dar@@ 323
beginn@@ 323
cir@@ 323
squ@@ 323
00 322
gs 322
goo@@ 322
and, 322
you'll 322
hou@@ 322
ture@@ 322
ie 321
cat@@ 321
turns 321
guy 321
Here 320
experien@@ 320
tric@@ 319
Yea@@ 319
belie@@ 319
univer@@ 319
your@@ 318
everybody 318
meas@@ 318
ast@@ 318
couldn't 317
den 316
Li@@ 316
arch 316
scien@@ 315
book 315
ists 315
bod@@ 315
Chin@@ 315
ously 314
ouldn't 314
front 314
run 314
decided 314
land@@ 314
opportun@@ 313
ip@@ 313
since 313
kel@@ 313
behavi@@ 313
loo@@ 312
ond 312
great@@ 312
Africa 311
son@@ 311
ich 311
it? 311
thre@@ 311
Ar@@ 310
depen@@ 310
expla@@ 310
land 310
Ro@@ 309
kin@@ 309
public 309
lear@@ 309
future 308
ched 308
do, 308
dr@@ 308
oon 307
You@@ 307
ssi@@ 307
mov@@ 307
ath 307
then, 307
We've 307
ch, 306
inn@@ 306
takes 306
"The 306
p, 306
stand@@ 305
see, 305
here's 305
ped 305
pati@@ 305
model@@ 304
trac@@ 304
ame 304
ala@@ 304
often 304
women 303
clim@@ 302
problems 302
op 302
wer 302
knew 302
ese 302
well. 301
American 301
thr@@ 301
histor@@ 301
hop@@ 301
stuff@@ 301
ia 301
ic. 301
anim@@ 300
ness 300
ily 300
open 300
absolu@@ 300
ric@@ 299
ted. 299
room 299
ms. 299
became 299
collec@@ 299
ee@@ 298
mber@@ 298
ced 298
S. 298
architec@@ 298
Wor@@ 298
Here's 298
large 298
sec@@ 298
rac@@ 298
typ@@ 298
open@@ 297
TED@@ 297
bet@@ 297
disc@@ 297
obvi@@ 296
uses 296
we'll 296
business 295
is: 295
things, 295
ic, 295
ally. 295
eds 294
secon@@ 294
someone 294
ise 294
ner@@ 294
supp@@ 294
thro@@ 294
valu@@ 293
fra@@ 293
countries 293
arti@@ 292
particular 292
hear 291
project 291
inc@@ 291
too@@ 291
ind 291
canc@@ 291
d-@@ 290
huge 290
oper@@ 290
ment@@ 289
natural 289
know. 289
tures 289
protec@@ 289
moving 288
works 288
Is 288
tro@@ 288
places 288
Earth 288
ago 287
entire 287
amp@@ 287
amazing 287
inv@@ 287
ont@@ 286
thes@@ 286
invol@@ 286
interest@@ 286
number@@ 286
ound, 286
"Well, 286
tin@@ 286
ep 285
res@@ 285
2 285
engineer@@ 285
vic@@ 285
vel 285
day. 285
iou@@ 285
or, 285
group 284
certain 284
relig@@ 284
created 284
cal@@ 283
imagine 283
ound. 283
Do 283
else 283
tel@@ 283
saying 283
bir@@ 283
posed 282
partic@@ 282
actually, 282
ching 282
example, 282
car 282
play@@ 282
compu@@ 282
befor@@ 282
read@@ 282
was, 282
medic@@ 282
compas@@ 282
dent 281
turned 281
part@@ 281
head 281
least 281
ck@@ 281
remember 281
og@@ 281
word 281
momen@@ 281
grou@@ 281
Su@@ 280
tab@@ 280
matter 280
organ@@ 280
process 280
child 280
ker@@ 280
wit@@ 279
oul@@ 279
organiz@@ 279
anc@@ 279
Nor@@ 279
thing@@ 279
att@@ 279
ago. 279
view 278
relation@@ 278
bri@@ 277
lif@@ 277
example 277
fro@@ 277
contin@@ 276
cep@@ 276
wonderful 276
childr@@ 276
De@@ 275
excit@@ 275
ys. 275
says 275
against 275
along 275
gave 274
shows 274
consi@@ 274
Bo@@ 274
Ne@@ 274
very, 274
tool@@ 273
spo@@ 273
name 272
nam@@ 272
days 272
en't 272
ty@@ 272
maj@@ 272
experience 272
species 272
We@@ 272
what@@ 272
size 272
chil@@ 272
consu@@ 271
difficul@@ 271
percen@@ 271
seven 271
are, 270
based 270
stories 270
stop 270
of@@ 270
ref@@ 270
hol@@ 270
work, 270
case 270
jour@@ 270
buy 269
ool 269
ordin@@ 269
happen 269
back@@ 269
tou@@ 269
seeing 269
health 268
Au@@ 268
lim@@ 267
recor@@ 267
des 267
survi@@ 267
year, 267
lap@@ 266
perfec@@ 266
clear@@ 266
ors 266
self. 266
aver@@ 265
thousands 265
knowle@@ 265
recog@@ 265
expl@@ 265
today. 265
charac@@ 265
visu@@ 265
home 264
ves, 264
innov@@ 264
y: 264
aff@@ 264
tan@@ 264
men 264
video 264
interested 264
mind 264
oor@@ 263
third 263
known 263
arly 263
Oka@@ 263
city 262
s." 262
with@@ 262
desig@@ 262
grow@@ 262
ang@@ 262
amount 262
mes@@ 262
righ@@ 261
ile 261
year. 261
7 261
self-@@ 261
00@@ 261
learned 261
move@@ 261
outh 261
stra@@ 260
sed 260
dru@@ 260
job@@ 260
At 260
state 259
CA: 259
disa@@ 259
communic@@ 259
alle@@ 259
ound@@ 259
new@@ 259
other. 259
Just 258
imagin@@ 258
3 258
chem@@ 258
sli@@ 257
king, 257
notic@@ 257
scri@@ 257
experi@@ 257
worked 256
right. 256
rest 256
cannot 256
self, 255
answer@@ 255
early 255
net 255
leave 255
Ha@@ 254
ers, 254
audi@@ 254
predic@@ 254
dur@@ 253
kid@@ 253
vely 253
argu@@ 253
dy 253
scre@@ 253
inten@@ 253
syn@@ 253
u 253
God 253
ence. 252
sequ@@ 252
lan@@ 251
decis@@ 251
Z@@ 251
moment 251
mul@@ 251
Don@@ 251
planet 251
be, 250
Not 250
ent. 250
again. 250
model 250
wards 250
family 249
Con@@ 249
oor 249
govern@@ 249
No, 249
music 249
nee@@ 248
ben@@ 248
ality 248
You're 248
months 248
thought, 248
Or 248
level@@ 247
ly@@ 247
share 247
won@@ 247
history 247
tiv@@ 247
question@@ 246
studi@@ 246
Ever@@ 246
cost 245
given 245
kl@@ 245
fig@@ 245
cy@@ 245
beh@@ 245
als, 245
4 245
Engl@@ 245
ev@@ 245
em 245
began 244
pressi@@ 244
tex@@ 244
nature 244
follo@@ 243
sometimes 243
ations. 243
mother 243
universe 243
unch 242
abil@@ 242
tho@@ 242
though@@ 242
mal 242
ely, 241
fe 241
able. 241
sever@@ 241
y-@@ 241
guys 241
spre@@ 241
d? 241
hon@@ 240
ming 240
today, 240
bab@@ 240
fur@@ 240
full 239
dollar@@ 239
People 239
What's 239
mone@@ 239
6 239
ich@@ 239
alk 239
camer@@ 239
uni@@ 239
perhaps 238
ys@@ 238
brought 238
nec@@ 238
use, 238
exist@@ 238
ton 238
animals 238
house 238
outside 238
study 238
government 237
sour@@ 237
micro@@ 237
dimen@@ 237
mm@@ 237
essen@@ 237
health@@ 237
whatever 237
15 236
ding@@ 236
situ@@ 236
right, 236
crit@@ 236
intelligen@@ 236
of, 236
"O@@ 236
inclu@@ 235
resour@@ 235
ever@@ 235
say@@ 234
40 234
publ@@ 234
industr@@ 234
mathemat@@ 234
tely 234
cas@@ 233
ft 233
ders 233
busin@@ 233
head@@ 233
atur@@ 233
ith 232
ox@@ 232
test 232
ice. 232
Af@@ 232
ms, 232
go. 232
tail@@ 231
wonder@@ 231
les. 231
les, 231
energ@@ 230
ought 230
India 230
zer@@ 230
ce@@ 230
reg@@ 230
50@@ 230
e." 230
Re@@ 229
extre@@ 228
Le@@ 228
ton@@ 228
carb@@ 228
evi@@ 228
ffer@@ 227
peop@@ 227
Ste@@ 227
y's 227
atten@@ 226
bed 226
to, 226
super@@ 226
illi@@ 226
ere 225
scal@@ 225
are. 225
pers@@ 225
Gre@@ 224
concep@@ 223
clu@@ 223
pi@@ 223
auth@@ 223
func@@ 222
pie@@ 222
ten 221
moder@@ 221
son 221
emer@@ 221
stop@@ 221
compe@@ 220
ick 219
tors 219
vin@@ 218
anal@@ 218
tal 218
En@@ 218
Par@@ 217
aga@@ 217
she@@ 217
ack@@ 217
dy@@ 217
B: 217
vers@@ 216
bat@@ 216
ood@@ 216
r. 216
int 216
iden@@ 216
is? 215
OK. 215
kil@@ 215
regi@@ 215
bio@@ 215
Po@@ 215
Fran@@ 215
ature 214
gen 214
He@@ 214
pt 214
mal@@ 214
natu@@ 213
coo@@ 212
To@@ 212
nit@@ 212
extra@@ 212
S 211
sug@@ 211
t: 211
air 211
activ@@ 211
ook 210
anti@@ 210
continu@@ 209
poten@@ 209
tle 209
actu@@ 209
um@@ 208
water. 208
doc@@ 207
hand 207
construc@@ 206
non-@@ 206
recen@@ 206
radi@@ 206
lab@@ 206
fec@@ 205
particul@@ 205
ool@@ 205
als@@ 205
len@@ 204
uit@@ 204
0 204
met 204
Se@@ 203
rote 203
press@@ 203
ire 202
king. 202
Ex@@ 201
tt@@ 201
ene@@ 200
ace 200
stat@@ 200
funda@@ 200
elt 200
hun@@ 200
ver, 199
condit@@ 199
sn@@ 199
199@@ 199
V 198
Pro@@ 198
vide@@ 198
ers. 198
te, 198
stic 198
eri@@ 197
8 197
institu@@ 197
Stat@@ 197
prof@@ 196
spir@@ 196
perio@@ 196
9 196
ker 196
begin 196
enti@@ 196
well@@ 196
princi@@ 196
sal@@ 195
tain 194
ilo@@ 194
Car@@ 193
age@@ 193
type 193
organis@@ 193
om 193
know@@ 192
invest@@ 192
past 192
Ho@@ 191
mber 191
fam@@ 191
later, 190
fo@@ 190
kers 190
gel@@ 190
labor@@ 190
La@@ 190
sla@@ 190
18@@ 190
i, 189
inform@@ 189
sle@@ 189
lik@@ 189
ple 188
resi@@ 187
spe@@ 187
til@@ 187
Me@@ 187
Ge@@ 187
tage 187
stro@@ 186
hoo@@ 186
sign@@ 186
ama@@ 186
train@@ 185
digit@@ 185
gin@@ 185
ash@@ 184
HI@@ 184
l, 184
ch. 184
dom 184
soci@@ 184
ing? 183
team 182
Com@@ 182
Jap@@ 182
sex@@ 182
ide 181
favor@@ 181
AI@@ 181
eld 181
dig@@ 181
eling 181
let@@ 180
effic@@ 180
slo@@ 180
ul 180
25 180
gest@@ 180
origin@@ 180
Man@@ 180
tend 179
ust 179
els 178
Of 178
st-@@ 178
bal@@ 178
Hu@@ 178
ld 178
Uni@@ 177
l. 177
softw@@ 176
Ph@@ 176
enter@@ 175
Sa@@ 175
molecu@@ 175
Goog@@ 174
stand 173
thous@@ 173
York 173
met@@ 173
n, 172
gor@@ 172
!" 170
din@@ 170
cam@@ 169
n. 169
revolu@@ 169
enor@@ 168
mers 167
ator 167
example@@ 167
ade@@ 167
DNA 167
eth@@ 166
tem@@ 166
blo@@ 165
gan@@ 165
cha@@ 164
te. 164
hal@@ 164
d." 164
0, 163
D 163
media 163
tot@@ 162
intro@@ 162
scen@@ 161
ken 161
spi@@ 161
a's 161
film 161
riend 160
test@@ 160
id. 160
later 160
Bra@@ 160
complex@@ 160
dia@@ 160
tie@@ 160
Chris 159
tar@@ 159
spor@@ 159
Char@@ 159
Euro@@ 159
atmo@@ 159
water, 159
psycholog@@ 159
vert@@ 159
cris@@ 158
der, 158
60 158
Joh@@ 157
500 157
d: 157
Be@@ 157
200 157
itu@@ 157
Q@@ 157
democr@@ 156
ths 156
emotion@@ 156
Har@@ 156
les@@ 156
devel@@ 155
definit@@ 155
da, 155
sten@@ 155
profes@@ 155
ief 155
il. 154
ybe 154
"S@@ 154
ties 154
sy@@ 154
present@@ 153
tec@@ 153
ould 153
ding. 152
Brit@@ 152
bacter@@ 152
"W@@ 152
Col@@ 152
ird 152
confer@@ 151
ug@@ 151
beg@@ 151
stitu@@ 151
12 151
t." 151
ann@@ 150
1 150
pap@@ 150
ably 150
diversit@@ 149
Mon@@ 148
bom@@ 148
sing@@ 148
beauti@@ 148
accep@@ 147
id, 147
ite@@ 145
tradition@@ 145
die 145
time@@ 145
Ra@@ 145
perspec@@ 144
Da@@ 144
websit@@ 144
man, 144
centr@@ 144
n't 143
combin@@ 143
stati@@ 143
inst@@ 143
dec@@ 143
Ti@@ 142
prin@@ 142
Ja@@ 142
machine 142
strate@@ 142
dynam@@ 142
t's 142
emo@@ 142
f, 141
China 141
inspir@@ 141
18 141
eer@@ 140
cour@@ 140
Ju@@ 140
On@@ 139
Jo@@ 139
perc@@ 139
gol@@ 139
icul@@ 138
ding, 138
tele@@ 137
ens 137
computer@@ 137
wind 137
school. 137
mechan@@ 137
ier 136
Rich@@ 136
/@@ 136
X@@ 136
reme@@ 135
temper@@ 135
beau@@ 135
sten 135
ole 135
im 135
tech@@ 135
der. 135
conflic@@ 135
impact 134
mani@@ 134
sch@@ 134
fas@@ 134
z 133
OK@@ 133
ough 133
80 133
They@@ 132
lit@@ 132
symme@@ 132
mer 130
discus@@ 130
fan@@ 129
docu@@ 129
Ver@@ 129
mic@@ 128
el, 128
ons. 128
sin@@ 127
David 127
prec@@ 127
beca@@ 127
ig 127
Dar@@ 127
Ken@@ 127
spr@@ 126
ste 126
ns 126
C 126
instru@@ 126
100@@ 126
alis@@ 125
para@@ 125
um. 125
lex@@ 125
drin@@ 125
uro@@ 125
infra@@ 124
fascin@@ 124
sof@@ 124
xt 123
Yor@@ 123
tten 123
mak@@ 122
i. 122
el. 122
io@@ 122
creativ@@ 122
gene@@ 122
land, 122
interac@@ 122
ieve 122
pra@@ 121
Europ@@ 121
industri@@ 121
orig@@ 121
eer 120
sti@@ 120
quit@@ 120
West@@ 120
experiment 119
Mc@@ 119
heal@@ 119
spar@@ 119
vari@@ 119
11 118
wel@@ 118
door@@ 117
eg@@ 117
T 116
ger. 116
The@@ 116
mun@@ 116
la 116
ili@@ 115
ous@@ 115
mas@@ 114
week 114
ken@@ 113
whe@@ 112
water@@ 112
colle@@ 112
techn@@ 111
Mid@@ 111
door 110
ready 110
bus@@ 110
lie@@ 110
rit@@ 110
versit@@ 110
anci@@ 110
imp@@ 108
dollar 108
computers 108
bla@@ 108
oud 108
Sch@@ 108
reac@@ 108
rom 107
engin@@ 106
universit@@ 106
land. 105
Pe@@ 105
bin@@ 105
extra 105
dia 105
ware 105
mee@@ 105
ell, 105
gers 104
financi@@ 104
stru@@ 104
val 104
0. 103
clus@@ 103
ja@@ 103
cou@@ 102
examp@@ 102
sters 102
zon@@ 102
ok@@ 101
exper@@ 101
CO@@ 100
glob@@ 100
een 100
scrip@@ 100
vor@@ 100
lob@@ 100
fantast@@ 99
ma 99
on-@@ 98
sym@@ 97
defin@@ 97
youn@@ 96
fab@@ 96
q@@ 94
prob@@ 94
kilome@@ 93
ll 93
intel@@ 93
alist@@ 92
over. 92
ond@@ 92
ands 91
gas@@ 91
zing 90
pun@@ 90
suc@@ 90
plat@@ 90
est. 88
volu@@ 88
hig@@ 88
dol@@ 88
end. 87
resp@@ 86
eig@@ 86
f. 86
see@@ 86
$@@ 85
na 85
ene 85
onder 85
vul@@ 85
pho@@ 84
's, 83
self@@ 83
P 83
zen 82
pers 82
bacteri@@ 81
mma@@ 81
m? 81
je@@ 80
was. 80
ven, 80
infor@@ 79
mmer 78
mel@@ 78
bru@@ 77
DN@@ 77
onom@@ 77
ie. 77
Al 76
oom 75
lie 75
cin@@ 75
lion 75
Nu@@ 75
zes 75
som@@ 74
ij@@ 74
mand 74
nation@@ 73
K 73
rich@@ 73
twe@@ 73
mole@@ 73
ier@@ 73
basis 72
ander@@ 72
was@@ 72
s-@@ 72
O 71
ie, 71
ze. 71
psych@@ 71
iet@@ 70
bel 70
tradit@@ 70
rie@@ 69
zin@@ 69
meter 69
grat@@ 68
dn't 68
gene 67
appar@@ 67
vast 67
Te@@ 67
demo@@ 67
]@@ 67
nov@@ 65
Dan 65
..@@ 64
ko@@ 64
za@@ 64
len 64
ago@@ 63
men, 63
van 63
vest@@ 63
ten, 62
ze, 62
tak@@ 62
fron@@ 62
fen@@ 61
zi@@ 61
Den@@ 61
sto@@ 60
ek 60
ker. 60
ativ@@ 60
dor@@ 60
dit 60
den, 59
indi@@ 59
pret@@ 59
import@@ 57
extr@@ 56
tast@@ 55
port@@ 54
Mis@@ 54
deed 53
El@@ 53
web@@ 53
tel 53
ern@@ 53
men. 52
oon@@ 52
mom@@ 52
ven. 52
q 52
ks@@ 52
ne 51
oot 51
kle@@ 51
aa@@ 51
aller@@ 50
gang 50
via 50
gine 50
dw@@ 49
mod@@ 49
den. 49
k: 49
?@@ 48
red@@ 48
exam@@ 47
gen, 47
B 47
wen@@ 47
soc@@ 47
ander 47
Chr@@ 46
acro@@ 46
zo@@ 46
A: 46
E 46
again@@ 46
calle@@ 45
aten 45
trum 45
sche@@ 44
M 44
Beca@@ 44
X 43
R 43
rien@@ 43
decide@@ 43
lever@@ 43
pen 43
erg@@ 43
ff 42
ten. 42
veil@@ 42
vast@@ 42
perha@@ 41
het@@ 40
Ten 40
rik@@ 40
hier@@ 40
N 40
vat@@ 39
ount 39
Ter@@ 39
does@@ 39
lig@@ 38
dien@@ 38
&@@ 38
;@@ 38
verb@@ 38
un 37
had. 37
Natu@@ 37
ged@@ 37
kan@@ 37
L 36
v 36
sam@@ 35
- 35
iet 35
ert 35
ien 35
ler@@ 35
op. 35
bene@@ 35
:@@ 35
spra@@ 34
weet 34
onge@@ 34
lar 34
zing@@ 34
sen 34
uit 34
Bec@@ 33
ingen@@ 33
simp@@ 33
gen. 33
ings@@ 33
's. 33
dig 33
mma 33
ken, 33
G 33
en? 33
stem@@ 33
pop@@ 32
[ 32
Ok@@ 31
brand@@ 30
ik 30
vou@@ 30
nolog@@ 30
ur. 30
een@@ 30
ans@@ 29
tie 29
ef 29
beha@@ 29
spel@@ 29
ust@@ 28
Vol@@ 28
letter@@ 28
ken. 27
nie@@ 27
ur, 27
omen 27
heel 27
exac@@ 26
H 26
thu@@ 26
zu@@ 26
Tran@@ 25
til 25
uit. 25
F 25
best@@ 25
Men@@ 24
diff@@ 24
!@@ 24
onder@@ 24
kinder@@ 24
themat@@ 24
flic@@ 23
Y 23
toon@@ 23
toe@@ 23
gev@@ 23
ligen@@ 23
sne@@ 23
blic 23
ou 22
're 22
sel 21
word@@ 21
jar@@ 21
Q 21
oug@@ 21
en: 21
atever 21
viron@@ 21
gel 21
Oo@@ 20
ga 20
log 20
hoe 20
groo@@ 20
sych@@ 19
itec@@ 19
af 19
reef 19
000 18
Peop@@ 18
heet 18
auto@@ 18
% 18
é@@ 17
allen 17
stap@@ 17
kt@@ 17
Davi@@ 17
U 17
nam 16
ons@@ 16
eens 16
dens 16
Sub@@ 16
isch@@ 16
bete@@ 15
gens 15
izen 15
moo@@ 15
Z 15
nd 15
had@@ 15
Som@@ 15
ein@@ 15
+ 15
/ 15
en." 14
probe@@ 14
op, 14
au 14
minder 14
zen@@ 14
titles 14
lich@@ 13
zwe@@ 13
geb@@ 13
mensel@@ 13
kie@@ 13
dus 13
em. 12
eel 12
J 12
anders 12
ö@@ 12
mee 12
W 11
) 11
tte 11
leu@@ 11
wel 11
De 11
#@@ 11
doo@@ 11
I'@@ 10
pen, 10
mach@@ 10
het 10
gels 10
onze 10
elen 9
– 9
bes@@ 9
at's 9
á@@ 9
indu@@ 9
bent 9
dan 9
é 9
— 9
eft 9
stel@@ 8
". 8
koo@@ 8
vern@@ 8
Want 8
aire 8
kend 8
bli@@ 8
beet@@ 7
TE@@ 7
kwa@@ 7
Ze 7
ere's 7
j 7
kr@@ 7
oel 7
pen. 7
van. 7
twee@@ 7
kun@@ 7
kli@@ 7
tie, 6
erd 6
sen, 6
del 6
hoe@@ 6
aten. 6
stell@@ 6
zel@@ 6
bare 6
ó 6
bere@@ 6
hul@@ 6
zen. 6
ü@@ 6
zor@@ 5
kon@@ 5
woe@@ 5
ù 5
(@@ 5
zie@@ 5
vand@@ 5
vind 5
drie@@ 5
enig@@ 5
wel. 5
vier 5
je 5
kap@@ 5
liet 5
ende 5
kon 5
bie@@ 5
@@@ 5
hem 5
sen. 5
realis@@ 5
vu@@ 5
allen@@ 5
kans 5
graf@@ 5
acht 5
kel 4
ù@@ 4
iden 4
atie@@ 4
klin@@ 4
tie. 4
ñ@@ 4
Aar@@ 4
Wan@@ 4
í@@ 4
aan@@ 4
gelo@@ 4
kra@@ 4
zo 4
leven 4
oog 4
zig@@ 4
Amer@@ 4
nu 4
roe@@ 4
sie 4
è@@ 4
feit 4
ã@@ 4
aar@@ 3
ige 3
'. 3
zie 3
hen 3
lop@@ 3
kor@@ 3
zen, 3
=@@ 3
wat 3
ó@@ 3
beel@@ 3
uren 3
+@@ 3
achter 3
iets 3
leef@@ 3
volle@@ 3
ä@@ 3
kan 3
zag 3
^@@ 3
vre@@ 3
raa@@ 3
ben 2
atie 2
â@@ 2
uw@@ 2
oog@@ 2
ï@@ 2
aat@@ 2
lei 2
“@@ 2
” 2
Afrik@@ 2
aties 2
iste 2
oren 2
toe 2
den: 2
von@@ 2
–@@ 2
aal@@ 2
scha@@ 2
samen@@ 2
* 2
É@@ 2
cht 2
kwe@@ 2
Zo@@ 2
jon@@ 2
aan, 2
dt 2
ou, 2
zet@@ 2
", 2
vidu@@ 2
taf@@ 2
alles 2
.000 1
aan 1
halve 1
zin 1
Met 1
aal 1
Je 1
erg 1
ele 1
kun 1
lang 1
gele@@ 1
kk@@ 1
nited 1
ú@@ 1
goe@@ 1
bij@@ 1
stel 1
zal 1
leven@@ 1
kam@@ 1
elk 1
stof@@ 1
alen 1
cht@@ 1
º@@ 1
heb@@ 1
˚ 1
’ 1
…@@ 1
kenn@@ 1
ische 1
recht@@ 1
gesch@@ 1
isch 1
geme@@ 1
Ja, 1
ò@@ 1
à@@ 1
ê@@ 1
ieu@@ 1
heid@@ 1
√@@ 1
±@@ 1
aal, 1
%@@ 1
—@@ 1
Om@@ 1
£@@ 1
# 1
hun 1
het. 1
ā@@ 1
aar. 1
ç@@ 1
Ç@@ 1
je, 1
heen 1
achter@@ 1
gen: 1
igen 1
atie, 1
ik, 1
hoop 1
meer@@ 1
opper@@ 1
tjes 1
kop@@ 1
= 1
bew@@ 1
zeg@@ 1
