the 73121
to 44141
a 44036
c@@ 43495
of 42546
and 38308
, 34622
. 33686
s@@ 33163
t@@ 32301
s 31859
in 30193
e@@ 29660
f@@ 27972
y 27060
that 26997
a@@ 26921
b@@ 25710
p@@ 25565
in@@ 25018
i@@ 24553
I 24269
is 23971
e 22472
re@@ 22073
m@@ 20259
an@@ 19829
ar@@ 19814
you 19794
d@@ 19468
d 19134
t 18933
ing 18810
w@@ 18163
y@@ 17908
And 17815
ed 16958
n@@ 16916
ic@@ 16684
en@@ 16573
u@@ 15879
g@@ 15828
r@@ 15632
it 15626
th@@ 15599
we 15590
al@@ 15535
on 15450
on@@ 15229
st@@ 15184
le@@ 14904
o@@ 14785
l@@ 14627
it@@ 14543
v@@ 14208
at@@ 14163
h@@ 13478
this 13449
s, 13382
di@@ 13228
de@@ 13092
or@@ 13091
s. 12502
-- 12440
il@@ 12430
ac@@ 11983
at 11446
er@@ 10938
al 10924
se@@ 10773
are 10701
k@@ 10596
l 10467
k 10447
was 10333
y, 10329
un@@ 10056
e, 9918
ma@@ 9803
ou@@ 9797
for 9724
li@@ 9704
be@@ 9703
have 9610
es 9580
ve 9476
er 9467
ch@@ 9435
e. 9363
as@@ 9179
si@@ 9039
an 8981
lo@@ 8807
-@@ 8759
S@@ 8684
with 8321
ol@@ 8319
is@@ 8310
all 8099
me@@ 8031
be 7992
sa@@ 7963
ne@@ 7834
about 7652
they 7633
? 7618
as 7590
w 7549
what 7419
one 7418
ge@@ 7349
ti@@ 7336
us@@ 7326
ly 7311
can 7236
con@@ 7232
"@@ 6955
y. 6942
wor@@ 6941
ex@@ 6925
A@@ 6867
so 6748
ri@@ 6710
do@@ 6701
or 6666
ul@@ 6639
ra@@ 6573
m 6535
d, 6502
ro@@ 6482
not 6390
el@@ 6320
tr@@ 6293
t, 6281
ie@@ 6276
very 6236
d. 6137
ts 6124
oo@@ 6076
: 6071
om@@ 6023
pro@@ 5987
he@@ 5982
op@@ 5848
es@@ 5810
M@@ 5805
do 5795
sp@@ 5772
Th@@ 5757
no@@ 5722
ther@@ 5588
ur@@ 5588
to@@ 5576
ent 5569
pl@@ 5500
po@@ 5492
from 5461
am@@ 5449
B@@ 5447
t. 5434
su@@ 5406
he 5348
mo@@ 5342
ta@@ 5299
it's 5291
wh@@ 5282
you@@ 5263
So 5231
W@@ 5201
ter@@ 5191
ec@@ 5184
our 5105
like 5058
per@@ 5051
sc@@ 5047
my 5035
te@@ 4997
ce 4970
le 4956
ir@@ 4939
1@@ 4935
The 4901
H@@ 4878
the@@ 4852
just 4847
ab@@ 4827
wa@@ 4760
com@@ 4736
all@@ 4724
ge 4693
but 4685
out 4657
people 4630
king 4602
bo@@ 4550
qu@@ 4547
h 4546
how 4533
if 4489
C@@ 4488
f 4476
T@@ 4453
O@@ 4450
ver@@ 4439
for@@ 4400
But 4390
going 4390
these 4343
da@@ 4303
D@@ 4225
're 4143
im@@ 4113
se 4101
E@@ 4068
by 4057
g 4003
I@@ 3968
oun@@ 3914
p 3910
n 3898
which 3873
ation@@ 3862
ate 3849
Wh@@ 3843
because 3800
." 3779
ap@@ 3771
we@@ 3766
there 3760
's 3749
ch 3746
par@@ 3739
get 3724
pre@@ 3723
P@@ 3712
x@@ 3712
ha@@ 3690
ation 3683
had 3680
We 3641
up 3641
de 3610
when 3609
0@@ 3587
man@@ 3577
ted 3553
This 3533
men@@ 3517
ar 3514
ter 3483
G@@ 3439
hi@@ 3427
think 3420
et 3418
ig@@ 3417
would 3409
your 3399
vi@@ 3380
en 3375
really 3373
I'm 3366
see 3365
N@@ 3319
more 3293
est@@ 3281
ing@@ 3280
n't 3276
It's 3259
sh@@ 3244
L@@ 3234
ad@@ 3227
ds 3224
ight 3210
bu@@ 3209
ies 3192
other 3186
e's 3186
ing. 3169
tur@@ 3154
were 3152
has 3137
ons 3135
ing, 3127
their 3117
who 3100
me 3095
fe@@ 3094
thing 3083
No@@ 3072
o 3066
der@@ 3066
ame 3058
our@@ 3050
la@@ 3046
R@@ 3028
cre@@ 2991
some 2966
igh@@ 2964
her@@ 2960
th 2951
ting 2949
comp@@ 2939
where 2933
that's 2919
ity 2915
You 2913
don't 2902
em@@ 2899
tu@@ 2898
into 2885
es, 2880
wn 2851
then 2851
oc@@ 2836
and@@ 2824
ho@@ 2823
st 2814
2@@ 2813
ally 2792
go 2792
w, 2790
ati@@ 2774
z@@ 2749
F@@ 2746
will 2745
us 2743
ru@@ 2737
ound 2720
star@@ 2711
them 2710
es. 2708
'@@ 2706
go@@ 2698
It 2696
0 2690
ga@@ 2668
way 2637
tal@@ 2622
happ@@ 2616
sel@@ 2615
actually 2609
fac@@ 2602
ic 2596
So, 2574
bac@@ 2565
know 2558
gre@@ 2550
tion@@ 2541
want 2523
ke 2522
gi@@ 2505
mu@@ 2494
ide@@ 2492
make 2473
fin@@ 2468
I'@@ 2451
that@@ 2446
gen@@ 2425
♫ 2420
been 2408
could 2386
ood 2384
it. 2365
tion 2360
ough 2352
tel@@ 2345
've 2332
got 2332
gu@@ 2330
stor@@ 2325
inter@@ 2323
ver 2321
gra@@ 2318
things 2305
hu@@ 2288
ther 2278
ough@@ 2275
chan@@ 2271
fu@@ 2269
time@@ 2254
ks 2246
K@@ 2239
use 2232
sen@@ 2205
tic@@ 2195
por@@ 2187
ke@@ 2162
ph@@ 2155
min@@ 2152
little 2145
come 2142
sy@@ 2136
ys 2131
lif@@ 2129
able 2129
at's 2128
ad 2123
ast 2121
most 2116
sit@@ 2113
ien@@ 2111
pa@@ 2104
bi@@ 2094
,@@ 2092
is, 2091
than 2090
c 2089
den@@ 2085
k, 2074
J@@ 2073
les 2065
ff@@ 2059
ell@@ 2024
stu@@ 2023
something 2021
m. 2016
ying 2009
differ@@ 2009
ving 2003
dy 2003
ine 2003
can@@ 1993
loo@@ 1989
; 1979
ked 1976
br@@ 1969
They 1963
id@@ 1961
know, 1954
kind 1949
over 1946
look 1934
those 1932
ss 1921
two 1917
his 1915
ist@@ 1903
" 1902
tra@@ 1901
worl@@ 1897
we're 1894
sig@@ 1894
first 1894
years 1884
't 1879
id, 1878
Y@@ 1871
ut 1869
of@@ 1854
new 1852
j@@ 1848
no 1840
ld 1831
mon@@ 1826
gr@@ 1825
here 1825
ll 1824
ever@@ 1814
year@@ 1812
ell, 1810
sur@@ 1806
time 1805
ste@@ 1788
9@@ 1783
ess 1766
pr@@ 1761
mat@@ 1761
ef@@ 1755
rec@@ 1750
ant 1749
au@@ 1747
vel@@ 1740
ca@@ 1733
duc@@ 1733
car@@ 1728
iz@@ 1719
ve@@ 1718
wi@@ 1704
on. 1703
m, 1703
ten@@ 1698
on, 1697
pe@@ 1697
co@@ 1691
cen@@ 1682
a, 1679
ment 1678
mil@@ 1678
In 1678
ran@@ 1670
ep@@ 1663
man 1660
ding 1655
some@@ 1653
mer@@ 1648
mar@@ 1643
id 1625
ere 1621
war@@ 1619
sor@@ 1615
U@@ 1609
du@@ 1607
ser@@ 1598
ven@@ 1595
5@@ 1593
alle@@ 1569
k. 1560
In@@ 1556
og@@ 1549
a. 1548
col@@ 1540
wat@@ 1540
sol@@ 1534
it, 1533
plan@@ 1531
bl@@ 1528
tw@@ 1523
rel@@ 1510
lar@@ 1509
lu@@ 1505
jec@@ 1481
even 1472
proble@@ 1454
spec@@ 1418
af@@ 1399
kno@@ 1393
tre@@ 1384
der 1384
is. 1376
3@@ 1359
ci@@ 1354
vol@@ 1347
een 1332
.@@ 1328
wer@@ 1323
nu@@ 1321
thin@@ 1319
est 1307
ye@@ 1295
ron@@ 1284
oe@@ 1283
The@@ 1282
form@@ 1277
el 1262
o, 1255
bel@@ 1254
har@@ 1250
ber@@ 1248
r 1242
x 1240
en, 1239
ple@@ 1226
technolog@@ 1217
mor@@ 1214
ach@@ 1213
A 1213
hel@@ 1202
pu@@ 1195
dr@@ 1186
wan@@ 1184
V@@ 1180
te 1180
mp@@ 1178
Af@@ 1171
over@@ 1169
ook 1164
tit@@ 1155
end 1134
str@@ 1115
Ch@@ 1110
pers@@ 1106
ould 1101
ni@@ 1095
?" 1094
4@@ 1070
vis@@ 1066
ze 1057
i 1049
sta@@ 1048
stru@@ 1048
peop@@ 1046
Ho@@ 1042
thing@@ 1022
lin@@ 1008
sch@@ 1006
00 1001
pp@@ 999
uit@@ 994
Al@@ 991
b 978
jo@@ 978
er, 977
gan@@ 967
TED 960
ble@@ 952
gro@@ 951
000 948
tro@@ 945
ill@@ 931
et@@ 930
als 926
ss@@ 918
beg@@ 914
8@@ 908
lan@@ 884
t: 883
dat@@ 877
6@@ 869
t's 861
q@@ 859
ven 858
ger@@ 849
mis@@ 836
ster@@ 832
er. 823
5 813
ust 803
’@@ 797
en. 789
7@@ 787
! 732
proc@@ 716
kin@@ 712
re 675
del@@ 662
ging 659
hal@@ 658
ten 648
inn@@ 629
han@@ 620
ree@@ 590
..@@ 586
sl@@ 585
wel@@ 581
op 572
hou@@ 560
ir 559
vo@@ 556
onder@@ 531
ker@@ 530
don@@ 529
natu@@ 502
actu@@ 491
ken 486
lit@@ 480
goe@@ 448
2 436
eer@@ 425
ale 401
wil@@ 397
van@@ 393
g. 384
[@@ 383
' 382
atu@@ 377
ur 375
dig@@ 366
fir@@ 365
log@@ 359
] 348
ik@@ 344
8 338
ze@@ 337
ie 321
den 320
kel@@ 313
ich 311
oon 307
TE@@ 304
ese 302
ont@@ 286
vor@@ 281
wit@@ 279
1 268
u 267
men 264
oor@@ 263
7 261
3 258
Z@@ 253
oor 249
tech@@ 246
4 245
em 245
tho@@ 242
6 239
ffer@@ 227
vin@@ 223
gen 214
S 211
tle 209
gel@@ 205
met 204
V 198
9 196
!@@ 194
om 193
hoo@@ 187
eld 181
tie@@ 170
D 163
Q@@ 157
ite@@ 145
die 145
ier 136
/@@ 136
X@@ 136
z 133
ste 128
beca@@ 127
C 126
ken@@ 122
T 116
door 110
lie@@ 110
rom 107
zon@@ 102
eig@@ 86
$@@ 85
ander@@ 84
P 83
twe@@ 80
lie 75
ij@@ 75
som@@ 74
K 73
O 71
za@@ 67
]@@ 67
zi@@ 64
len 64
van 63
dit 60
den, 59
q 52
kle@@ 51
aa@@ 51
den. 49
?@@ 48
B 47
zo@@ 46
een@@ 46
E 46
aten 45
M 44
X 43
R 43
pen 43
kan@@ 42
N 40
&@@ 38
;@@ 38
L 36
v 36
- 35
:@@ 35
sen 34
uit 34
gen. 33
dig 33
G 33
[ 32
ik 30
nolog@@ 30
tie 29
ken. 27
nie@@ 27
heel 27
H 26
F 25
Y 23
toe@@ 23
gev@@ 23
ou 22
Q 21
oug@@ 21
hoe 20
% 18
é@@ 17
U 17
isch@@ 16
Z 15
nd 15
+ 15
/ 15
geb@@ 13
dus 13
J 12
ö@@ 12
W 11
) 11
De 11
#@@ 11
het 10
onze 10
– 9
á@@ 9
dan 9
é 9
— 9
eft 9
Ze 7
j 7
kun@@ 7
cht 7
zel@@ 6
aan@@ 6
ó 6
ü@@ 6
ù 5
atie@@ 5
(@@ 5
je 5
ende 5
@@@ 5
aar@@ 4
ù@@ 4
ñ@@ 4
í@@ 4
zo 4
nu 4
è@@ 4
ã@@ 4
ige 3
=@@ 3
wat 3
ó@@ 3
+@@ 3
aal@@ 3
iets 3
ä@@ 3
kan 3
^@@ 3
raa@@ 3
ben 2
atie 2
â@@ 2
ï@@ 2
aat@@ 2
“@@ 2
” 2
–@@ 2
cht@@ 2
* 2
É@@ 2
dt 2
aan 1
aal 1
Je 1
ú@@ 1
zal 1
º@@ 1
heb@@ 1
˚ 1
’ 1
…@@ 1
ische 1
ò@@ 1
à@@ 1
ê@@ 1
√@@ 1
±@@ 1
%@@ 1
—@@ 1
£@@ 1
# 1
hun 1
ā@@ 1
ç@@ 1
Ç@@ 1
= 1
zeg@@ 1
