de 71852
en 64751
k@@ 46578
een 42574
het 37569
van 34569
e@@ 33494
. 30144
d@@ 30111
t@@ 28613
is 28457
dat 27972
in 27657
b@@ 27403
ge@@ 27334
te 27098
, 26465
er@@ 25040
v@@ 24674
be@@ 24026
er 24013
s@@ 23832
en@@ 23794
en. 23281
g@@ 23114
i@@ 23062
st@@ 22889
t 22626
ver@@ 22387
el@@ 22027
z@@ 21675
je 21430
m@@ 20914
p@@ 19959
e 19685
s 19625
on@@ 19277
u@@ 19203
n@@ 18142
in@@ 18022
en, 17681
ik 17572
f@@ 17248
d 17059
we 16965
l@@ 16717
ie@@ 16453
die 16302
o@@ 16298
a@@ 15903
g 15879
den 15800
an@@ 14932
le@@ 14896
k 14198
we@@ 14070
op 13020
h@@ 13008
ze 12784
de@@ 12467
re@@ 12434
w@@ 12324
aa@@ 12170
ch@@ 11953
oo@@ 11823
zijn 11818
om 11639
niet 11424
or@@ 11402
c@@ 11401
sch@@ 11187
op@@ 11177
l 11063
met 10804
oe@@ 10804
wer@@ 10402
Ik 10293
gel@@ 9997
ken 9974
voor 9967
j@@ 9965
me@@ 9862
ten 9780
di@@ 9466
t. 9393
ij@@ 9379
als 9338
aan 9310
ar@@ 9264
al@@ 9225
te@@ 9113
a 9047
r@@ 9046
: 8892
gen@@ 8666
is@@ 8635
Het 8493
gen 8397
D@@ 8168
der@@ 8100
m 7904
wat 7806
he@@ 7796
ter@@ 7780
et 7608
den@@ 7531
aar@@ 7491
En 7468
ra@@ 7437
aar 7288
aan@@ 7237
ijk@@ 7196
t, 7159
ur@@ 7139
ma@@ 7106
-@@ 6986
"@@ 6968
? 6930
over 6868
naar 6865
-- 6860
f 6844
d. 6841
dit 6830
om@@ 6824
uit@@ 6705
ri@@ 6656
ne@@ 6653
deze 6652
sp@@ 6637
M@@ 6612
ou@@ 6572
ze@@ 6550
it@@ 6539
S@@ 6530
p 6500
do@@ 6485
ro@@ 6423
at@@ 6404
ijk 6326
to@@ 6173
was 6093
ste 6073
il@@ 5988
gr@@ 5963
la@@ 5950
of 5885
zi@@ 5882
voor@@ 5858
maar 5847
eer@@ 5837
ie 5827
dan 5813
ik@@ 5789
al 5657
ven 5652
We 5610
O@@ 5583
T@@ 5555
N@@ 5546
ing 5526
W@@ 5444
li@@ 5435
hebben 5394
men@@ 5332
ol@@ 5329
mo@@ 5328
da@@ 5317
ul@@ 5263
A@@ 5238
maa@@ 5221
ij 5208
am@@ 5183
all@@ 5035
cht 5025
kom@@ 4955
De 4931
and@@ 4925
oor@@ 4836
der 4793
wa@@ 4785
door 4747
kunnen 4743
id@@ 4740
1@@ 4737
ken@@ 4725
mijn 4725
B@@ 4716
s. 4703
mensen 4680
ing@@ 4642
pro@@ 4624
uit 4597
kel@@ 4565
and 4558
ig@@ 4499
H@@ 4481
vol@@ 4463
el 4391
Maar 4337
Dit 4289
d, 4227
kan 4194
V@@ 4143
waar@@ 4142
s, 4069
em@@ 4068
ru@@ 4064
onder@@ 4051
eren 4049
lo@@ 4038
ons 4037
at 4029
it 4023
gro@@ 3983
un@@ 3924
G@@ 3912
ell@@ 3898
ë@@ 3898
y@@ 3894
me 3863
del@@ 3820
us@@ 3801
ti@@ 3784
Ze 3759
ic@@ 3755
Dat 3717
'@@ 3700
E@@ 3680
zo@@ 3647
wor@@ 3640
ook 3632
veel 3619
hij 3595
no@@ 3593
gev@@ 3549
bij 3540
kt 3533
den. 3518
ont@@ 3508
ijke 3504
ste@@ 3494
rij@@ 3489
ge 3482
st 3442
zou 3433
es@@ 3421
as@@ 3384
geen 3375
ve@@ 3354
hel@@ 3354
man@@ 3339
sen 3319
waar 3305
ander@@ 3292
aten 3251
raa@@ 3249
Z@@ 3219
n 3205
zo 3184
hoe 3169
con@@ 3159
ac@@ 3159
C@@ 3152
se@@ 3147
ter 3133
ische 3116
pl@@ 3113
per@@ 3102
af@@ 3091
aal 3088
lan@@ 3083
over@@ 3083
nog 3060
ten@@ 3059
hun 3026
nen 3014
meer 3008
ouw@@ 2999
lijk 2997
K@@ 2988
alle@@ 2979
onze 2957
0@@ 2944
tot 2943
men 2936
e, 2931
P@@ 2929
ent 2928
nie@@ 2924
bel@@ 2910
zelf@@ 2909
es 2908
wij@@ 2903
Je 2900
ken. 2896
du@@ 2888
jaar 2881
i 2880
ts 2864
2@@ 2860
heb@@ 2859
0 2848
tel@@ 2843
L@@ 2835
é@@ 2814
ke 2813
ingen 2803
wil@@ 2794
Als 2788
w 2777
." 2764
ed 2758
iets 2757
war@@ 2752
J@@ 2745
beg@@ 2744
bl@@ 2740
zien 2737
ende 2718
zeg@@ 2715
ier 2704
heeft 2700
tr@@ 2680
geb@@ 2675
ven@@ 2669
Dus 2664
kun@@ 2629
nu 2629
cht@@ 2599
heid 2594
on 2583
u 2580
nieu@@ 2577
vi@@ 2555
kle@@ 2548
andere 2546
hier 2536
ef@@ 2520
len 2513
ap@@ 2507
wel@@ 2501
ke@@ 2492
is. 2488
heb 2476
R@@ 2461
tw@@ 2460
dt 2444
♫ 2425
gebru@@ 2422
tu@@ 2418
bo@@ 2418
een@@ 2413
ha@@ 2404
sta@@ 2403
ger@@ 2399
tie@@ 2391
ec@@ 2386
atie 2384
stu@@ 2358
I@@ 2340
jullie 2337
se 2329
gaan 2316
ijn@@ 2308
mer@@ 2307
dig@@ 2306
moe@@ 2304
ur 2299
br@@ 2287
Hij 2283
si@@ 2277
lie@@ 2274
pen 2269
hoo@@ 2265
dingen 2263
tijd 2261
zon@@ 2243
im@@ 2240
ige 2234
zal 2220
- 2217
ber@@ 2214
moeten 2200
aal@@ 2187
vin@@ 2173
zijn. 2162
toe@@ 2159
ies 2159
gen. 2155
omdat 2142
én 2129
heel 2129
k. 2126
ide@@ 2119
e. 2118
ch 2117
ster@@ 2116
den, 2111
dig 2091
echt 2085
Wat 2085
sel@@ 2077
ker@@ 2073
vo@@ 2070
Er 2061
aat@@ 2057
go@@ 2055
dus 2048
et@@ 2047
In 2047
wereld 2046
van@@ 2043
soor@@ 2042
oon 2039
had 2037
her@@ 2030
eig@@ 2026
mil@@ 2006
atie@@ 2000
moet 1998
eld 1984
an 1982
versch@@ 1977
hi@@ 1968
est 1959
ale 1956
ir@@ 1956
zoals 1953
za@@ 1942
tie 1915
is, 1901
min@@ 1901
wil 1900
doen 1897
inter@@ 1896
worden 1888
beur@@ 1881
Een 1878
gew@@ 1873
o 1867
sy@@ 1866
ta@@ 1865
vor@@ 1863
krij@@ 1857
zich 1855
.@@ 1853
hou@@ 1853
schap@@ 1851
sen@@ 1849
's 1847
ep@@ 1846
kan@@ 1836
gaat 1834
twee 1826
kin@@ 1819
ing. 1816
hu@@ 1812
ach@@ 1811
gra@@ 1805
ant 1803
su@@ 1799
zel@@ 1798
ben 1778
ist@@ 1771
ron@@ 1763
ite@@ 1735
em 1698
rom 1697
lu@@ 1695
ab@@ 1694
au@@ 1691
th@@ 1691
9@@ 1690
sc@@ 1689
tij@@ 1663
g. 1631
zijn@@ 1626
mis@@ 1622
ine 1613
gan@@ 1599
5@@ 1568
proble@@ 1561
oc@@ 1560
pa@@ 1552
hal@@ 1547
ex@@ 1534
k, 1505
F@@ 1499
goe@@ 1498
comp@@ 1474
ds 1468
ran@@ 1462
ijn 1461
a, 1447
ging 1444
x@@ 1444
..@@ 1440
ve 1430
sl@@ 1424
er. 1419
tro@@ 1412
le 1410
ill@@ 1410
wat@@ 1394
po@@ 1382
inn@@ 1382
pre@@ 1380
3@@ 1367
sa@@ 1355
tre@@ 1353
ï@@ 1338
sit@@ 1335
bi@@ 1332
natu@@ 1329
ree@@ 1325
" 1321
t: 1318
est@@ 1304
y 1299
ing, 1276
er, 1248
han@@ 1241
fe@@ 1236
a. 1220
jo@@ 1211
cen@@ 1211
par@@ 1202
ni@@ 1193
end 1192
plan@@ 1190
mat@@ 1189
the@@ 1182
wan@@ 1169
technolog@@ 1152
In@@ 1151
jec@@ 1137
ple@@ 1134
har@@ 1126
of@@ 1125
ss@@ 1125
les 1122
are 1121
proc@@ 1118
og@@ 1114
duc@@ 1114
m. 1105
ga@@ 1104
str@@ 1102
Ho@@ 1094
pers@@ 1082
ff@@ 1081
4@@ 1073
want 1073
dat@@ 1070
5 1069
Af@@ 1059
dr@@ 1037
id 1029
mu@@ 1023
00 1021
vel@@ 1016
cre@@ 1009
iz@@ 993
us 993
pp@@ 986
loo@@ 982
000 982
tit@@ 980
?" 964
som@@ 963
pr@@ 951
ding 932
vis@@ 930
Ch@@ 929
TED 922
for@@ 916
oor 916
tra@@ 916
8@@ 915
com@@ 912
ser@@ 909
pu@@ 903
tal@@ 896
lin@@ 894
spec@@ 893
6@@ 876
ver 873
ho@@ 871
twe@@ 863
ad@@ 858
mp@@ 851
mar@@ 849
bu@@ 848
nu@@ 843
Al@@ 837
r 836
' 830
m, 801
rel@@ 797
7@@ 791
stru@@ 789
! 748
ati@@ 744
ere 736
man 735
ci@@ 734
ks 716
rec@@ 715
to 702
U@@ 701
; 693
eft 666
even 660
ation@@ 641
king 633
es. 629
it. 627
log@@ 615
h 614
as 614
2 597
id, 596
wi@@ 587
pe@@ 570
sig@@ 568
form@@ 566
ting 565
es, 561
mon@@ 559
ou 557
gi@@ 556
Y@@ 556
,@@ 556
qu@@ 554
ast 542
or 541
ood 536
isch@@ 497
co@@ 491
lar@@ 482
tion@@ 479
atu@@ 475
fin@@ 468
ment 466
it, 460
mor@@ 460
3 459
b 457
on. 454
star@@ 434
8 433
on, 420
ame 417
1 411
sol@@ 401
stor@@ 392
kind 392
ut 389
sh@@ 388
6 386
y, 377
ust 371
col@@ 367
tur@@ 366
ld 364
4 360
w, 354
TE@@ 353
7 353
No@@ 347
x 342
don@@ 341
ble@@ 339
A 336
tic@@ 335
ir 330
tech@@ 328
one 319
S 311
ving 310
wit@@ 309
% 309
por@@ 309
ë 301
ate 299
ien@@ 274
sor@@ 274
bac@@ 274
9 263
fac@@ 261
ca@@ 260
o, 253
y. 252
our@@ 242
gre@@ 238
lit@@ 232
!@@ 226
ullie 220
[@@ 217
car@@ 217
ó@@ 212
lie 211
ese 207
ther@@ 203
out 200
è@@ 197
c 197
gu@@ 191
] 188
tho@@ 187
j 187
/@@ 183
chan@@ 180
ce 168
Th@@ 165
re 159
oun@@ 158
ö@@ 152
U 148
The 144
… 139
th 138
– 137
ph@@ 137
kno@@ 137
” 137
igh@@ 130
“@@ 128
ar 124
z 123
C 120
ffer@@ 119
;@@ 118
I 116
go 116
?@@ 115
’@@ 113
D 113
time@@ 112
lif@@ 112
ic 108
sur@@ 104
O 99
the 99
V 98
é 95
dy 90
ad 88
T 87
X@@ 87
‘@@ 85
ü@@ 82
v 81
&@@ 80
all 75
do 74
ever@@ 72
Q@@ 72
ation 69
how 69
be 68
ity 68
up 66
N 65
ly 65
our 62
Wh@@ 61
fu@@ 60
P 59
get 57
ight 57
ess 57
't 54
if 54
nolog@@ 53
K 51
been 51
than 49
á@@ 45
ss 44
à 43
The@@ 43
by 41
%@@ 40
B 40
these 39
wn 39
time 38
my 37
ye@@ 37
ther 37
’ 37
:@@ 34
ich 34
G 34
$@@ 34
X 33
E 33
actu@@ 32
É@@ 31
ê@@ 31
can@@ 31
]@@ 30
L 30
wh@@ 29
R 28
ound 28
ys 27
tle 27
M 24
for 23
differ@@ 23
— 23
q@@ 23
see 22
í@@ 22
tion 21
ó 20
nd 20
e's 19
Y 19
°@@ 19
so 18
H 18
½ 18
can 17
/ 17
F 16
Q 16
”@@ 16
ell, 15
♫@@ 15
ally 14
way 13
à@@ 13
Z 13
J 13
ã@@ 13
oug@@ 12
happ@@ 12
♪ 12
fir@@ 11
W 11
$ 11
no 11
) 11
ï 10
more 10
ough 9
ould 8
+@@ 8
And 8
= 7
#@@ 7
ç@@ 7
It 7
ñ@@ 7
+ 6
t's 6
very 6
use 6
° 6
he 6
ä@@ 6
you@@ 6
able 5
² 5
worl@@ 5
=@@ 5
then 5
ll 5
 @@ 5
—@@ 5
were 5
ying 5
ň@@ 5
not 4
q 4
´@@ 4
`@@ 4
*@@ 4
It's 4
with 4
@@@ 4
This 4
ked 4
have 3
–@@ 3
¨@@ 3
¨ 3
ú@@ 3
will 3
º@@ 3
ough@@ 3
^@@ 3
ò@@ 3
²@@ 3
you 3
£@@ 3
​@@ 2
@ 2
(@@ 2
` 2
They 2
…@@ 2
come 2
ú 2
î@@ 2
his 2
You 2
* 2
½@@ 2
â@@ 2
ì@@ 2
look 2
at's 2
people 1
've 1
♪@@ 1
å@@ 1
're 1
˚@@ 1
™@@ 1
º 1
peop@@ 1
got 1
‘ 1
it's 1
Ó@@ 1
¾ 1
ted 1
that@@ 1
beca@@ 1
I'@@ 1
ā@@ 1
“ 1
but 1
know, 1
€ 1
