de 67722
en 45646
een 40336
het 37569
van 34569
is 28457
in 27657
dat 27296
te 23363
k@@ 22436
je 20729
ge@@ 19657
. 18925
ik 17572
ver@@ 16667
die 16302
we 15672
, 15583
en@@ 15538
er 15428
en. 14731
er@@ 14490
st@@ 14334
be@@ 14150
g@@ 14071
d@@ 14015
e@@ 13605
t@@ 13373
op 13020
t 12896
s@@ 12727
en, 12696
zijn 11818
ze 11718
d 11665
om 11639
den 11451
niet 11424
s 11379
z@@ 11310
m@@ 11150
v@@ 11070
met 10804
u@@ 10627
in@@ 10601
Ik 10293
i@@ 10198
voor 9967
o@@ 9931
on@@ 9650
als 9338
aan 9310
f@@ 9282
b@@ 9101
p@@ 8618
Het 8493
g 8257
re@@ 8237
e 8146
: 8081
a@@ 8034
le@@ 8019
ie@@ 7909
k 7861
wat 7806
el@@ 7764
op@@ 7673
n@@ 7491
En 7468
l@@ 7388
an@@ 7236
t, 7159
"@@ 6968
over 6868
naar 6865
-- 6860
dit 6830
t. 6800
deze 6652
ten 6652
gen 6622
-@@ 6546
a 6428
de@@ 6212
was 6093
w@@ 6088
d. 6072
di@@ 6051
he@@ 5988
of 5885
we@@ 5872
voor@@ 5858
maar 5847
uit@@ 5813
dan 5813
D@@ 5811
c@@ 5780
We 5610
hebben 5394
ter@@ 5361
ur@@ 5347
ing 5345
mo@@ 5328
h@@ 5312
l 5174
ie 5153
al@@ 5124
sch@@ 5116
? 5054
is@@ 5051
oo@@ 5050
M@@ 5019
aa@@ 4983
ch@@ 4974
me@@ 4958
W@@ 4948
De 4931
te@@ 4908
der@@ 4858
at@@ 4809
S@@ 4807
gen@@ 4766
ar@@ 4750
door 4747
al 4745
kunnen 4743
or@@ 4733
ken@@ 4725
mijn 4725
B@@ 4688
mensen 4680
r@@ 4648
uit 4597
sp@@ 4514
aar@@ 4490
j@@ 4489
den@@ 4471
m 4447
ig@@ 4406
om@@ 4406
ij@@ 4368
Maar 4337
Dit 4289
cht 4247
f 4244
do@@ 4209
il@@ 4206
kan 4194
d, 4151
et 4142
waar@@ 4142
wer@@ 4077
gel@@ 4071
ne@@ 4064
eren 4049
ons 4025
p 4009
ou@@ 3989
aan@@ 3916
A@@ 3869
me 3863
ste 3797
Ze 3759
N@@ 3718
Dat 3717
ook 3632
ma@@ 3632
veel 3619
da@@ 3617
hij 3595
gev@@ 3549
bij 3540
am@@ 3524
O@@ 3519
s. 3493
ken 3442
zou 3433
la@@ 3428
H@@ 3423
geen 3375
G@@ 3370
ze@@ 3337
V@@ 3312
it@@ 3306
waar 3305
ro@@ 3299
li@@ 3280
oe@@ 3279
lo@@ 3263
st 3256
Z@@ 3219
ing@@ 3207
zi@@ 3201
zo 3184
onder@@ 3174
hoe 3169
to@@ 3163
C@@ 3152
ter 3133
ische 3116
s, 3114
af@@ 3091
lan@@ 3083
over@@ 3083
T@@ 3074
nog 3060
E@@ 3033
hun 3026
nen 3014
meer 3008
ra@@ 2968
ol@@ 2964
onze 2957
ven 2954
der 2945
tot 2943
1@@ 2936
men 2936
P@@ 2929
Je 2900
ul@@ 2900
men@@ 2889
jaar 2881
'@@ 2844
K@@ 2812
ingen 2803
ijke 2802
Als 2788
den. 2766
ic@@ 2764
." 2764
iets 2757
J@@ 2745
beg@@ 2744
zien 2737
id@@ 2724
em@@ 2709
heeft 2700
ti@@ 2681
geb@@ 2675
eer@@ 2673
Dus 2664
se@@ 2652
nu 2629
kom@@ 2611
gro@@ 2610
per@@ 2609
du@@ 2606
cht@@ 2599
heid 2594
L@@ 2584
andere 2546
hier 2536
es@@ 2518
maa@@ 2510
el 2510
rij@@ 2508
vol@@ 2505
y@@ 2503
ijk@@ 2488
is. 2488
heb 2476
R@@ 2461
kt 2454
♫ 2425
aal 2415
ri@@ 2407
ijk 2406
ger@@ 2399
ik@@ 2392
tie@@ 2391
ac@@ 2390
atie 2384
kel@@ 2378
ap@@ 2361
tu@@ 2356
I@@ 2340
jullie 2337
gaan 2316
dig@@ 2306
moe@@ 2304
ur 2299
Hij 2283
pen 2269
zo@@ 2265
dingen 2263
tr@@ 2261
ve@@ 2235
ige 2234
del@@ 2232
lijk 2223
zal 2220
- 2217
moeten 2200
wij@@ 2198
vi@@ 2197
tel@@ 2197
ge 2190
aal@@ 2187
e, 2182
nie@@ 2182
zijn. 2162
toe@@ 2159
ies 2159
gen. 2155
ef@@ 2150
i 2150
sen 2147
omdat 2142
and 2139
ij 2132
heel 2129
k. 2126
ster@@ 2116
den, 2111
no@@ 2095
con@@ 2088
echt 2085
Wat 2085
bo@@ 2082
ker@@ 2073
and@@ 2070
vo@@ 2070
Er 2061
ken. 2059
e. 2053
dus 2048
In 2047
wereld 2046
van@@ 2043
had 2037
her@@ 2025
oor@@ 2008
gr@@ 2002
at 2002
atie@@ 2000
moet 1998
ont@@ 1996
an 1982
stu@@ 1973
as@@ 1957
ale 1956
zoals 1953
ste@@ 1950
za@@ 1942
ten@@ 1919
hel@@ 1917
tie 1915
is, 1901
wil 1900
doen 1897
inter@@ 1894
worden 1888
Een 1878
o 1867
ta@@ 1865
vor@@ 1863
zeg@@ 1861
krij@@ 1857
zich 1855
hou@@ 1853
ru@@ 1852
's 1847
wel@@ 1839
kan@@ 1836
gaat 1834
u 1830
twee 1826
ende 1819
één 1818
ing. 1816
ach@@ 1811
hu@@ 1806
ant 1803
ven@@ 1800
all@@ 1798
es 1784
ben 1778
gebeur@@ 1778
ist@@ 1771
ron@@ 1763
leven 1761
wel 1755
ent 1738
ten. 1719
verander@@ 1706
lu@@ 1695
au@@ 1691
aten 1679
ke@@ 1671
th@@ 1669
it 1664
tij@@ 1663
ken, 1661
se 1653
ig 1649
werel@@ 1646
ab@@ 1642
g. 1631
on 1621
wordt 1617
sen@@ 1616
hoo@@ 1611
lie@@ 1607
alle 1606
wa@@ 1602
aar 1599
eerste 1599
denk 1598
zie@@ 1597
gele@@ 1593
daar 1590
laten 1572
ko@@ 1569
alleen 1561
2@@ 1559
ep@@ 1559
pa@@ 1552
ijn@@ 1550
kun@@ 1547
maken 1541
un@@ 1540
kle@@ 1521
tijd 1514
ellen 1513
goed 1507
k, 1505
bij@@ 1505
haar 1500
F@@ 1499
ele 1485
hoe@@ 1484
zelf 1479
ell@@ 1478
ber@@ 1473
vin@@ 1467
weet 1465
min@@ 1465
soort 1458
a, 1447
ging 1444
vr@@ 1442
hele 1437
gelijk@@ 1435
isch 1425
sl@@ 1424
us@@ 1420
er. 1419
kken 1417
werd 1415
voe@@ 1412
mee 1411
bl@@ 1406
mer@@ 1399
pro@@ 1398
erg 1394
sle@@ 1391
lijk@@ 1387
le 1386
waren 1386
inn@@ 1382
gebruik@@ 1381
im@@ 1380
grote 1373
toen 1370
chten 1369
manier 1368
onden 1367
gra@@ 1366
hal@@ 1366
war@@ 1366
ts 1363
x@@ 1363
kte 1360
een@@ 1358
tre@@ 1353
daar@@ 1332
gen, 1329
ree@@ 1325
zon@@ 1323
si@@ 1321
ond 1321
ein@@ 1320
aag 1318
gt 1314
ë@@ 1309
ouw@@ 1306
est 1304
mid@@ 1303
est@@ 1302
et@@ 1299
man@@ 1297
allemaal 1296
nieuwe 1293
w 1293
dan@@ 1286
nieu@@ 1284
raa@@ 1276
erd 1276
ing, 1276
dig 1275
sten 1270
wor@@ 1266
komen 1265
su@@ 1265
sel@@ 1261
staat 1259
ke 1254
ker 1254
... 1252
er, 1248
na 1245
ven. 1244
zijn, 1243
han@@ 1241
ten, 1240
beel@@ 1240
ha@@ 1239
mij 1238
fe@@ 1236
ed 1234
n 1231
sla@@ 1229
br@@ 1227
na@@ 1226
zen 1226
aan. 1225
kijk@@ 1222
a. 1220
zouden 1217
bin@@ 1214
volgen@@ 1214
doen. 1211
cen@@ 1211
ide@@ 1206
ie. 1201
ir@@ 1199
dige 1197
ni@@ 1193
bel@@ 1193
end 1192
elijk 1181
g, 1175
par@@ 1175
kra@@ 1172
boe@@ 1170
stel@@ 1164
" 1163
de, 1157
de. 1154
technolog@@ 1152
sta@@ 1144
wil@@ 1144
0@@ 1143
hem 1142
zelfde 1136
gelu@@ 1135
ple@@ 1134
ben@@ 1132
har@@ 1126
ss@@ 1125
net 1118
proc@@ 1118
of@@ 1116
ex@@ 1115
zullen 1114
.@@ 1105
m. 1105
schap@@ 1105
str@@ 1102
dra@@ 1102
kinderen 1094
hi@@ 1093
ve 1093
per 1091
pre@@ 1088
kt. 1085
sn@@ 1083
pers@@ 1082
kunt 1082
deel 1082
natuur@@ 1081
maakt 1079
komt 1079
woor@@ 1079
denken 1077
ouw 1074
4@@ 1073
want 1073
5 1069
besch@@ 1068
ga@@ 1068
Deze 1066
eren. 1065
iemand 1061
bren@@ 1060
Hier 1056
eens 1055
em 1055
jes 1050
weten 1049
kelijk 1048
5@@ 1047
y 1044
po@@ 1040
open 1039
dr@@ 1036
tro@@ 1035
oon 1032
en? 1031
id 1029
kleine 1027
elen 1026
mu@@ 1023
ga 1022
beeld 1022
va@@ 1018
ft 1017
bouw@@ 1017
plaat@@ 1016
vel@@ 1015
door@@ 1015
ongeveer 1013
zien. 1012
3@@ 1011
ie, 1011
bi@@ 1007
gewoon 1007
cre@@ 1006
mil@@ 1004
chte 1002
alles 1000
drie 999
sit@@ 997
é@@ 996
spre@@ 994
iz@@ 993
us 993
zor@@ 991
el, 991
pp@@ 986
willen 984
loo@@ 982
paar 981
ën 977
aar. 969
ontwikkel@@ 967
zeer 964
?" 964
fil@@ 963
som@@ 963
werk 963
eld 962
versch@@ 959
jar@@ 958
zoe@@ 957
tussen 955
ën@@ 954
kl@@ 952
ee@@ 952
pr@@ 951
Hoe 951
schap 950
ei@@ 946
bete@@ 946
zelfs 944
dru@@ 942
erde 939
misschien 939
geven 937
wij 936
ec@@ 933
kon 933
ding 932
aarom 932
af 931
vis@@ 930
onder 928
antwoor@@ 925
TED 922
hand@@ 922
tegen 921
doe@@ 920
zonder 920
proble@@ 918
for@@ 916
oor 916
tra@@ 916
8@@ 915
hadden 915
idee 913
geloo@@ 912
ser@@ 909
stell@@ 907
dag 907
ess@@ 903
zij 902
pun@@ 900
verschillende 899
gesch@@ 897
ander@@ 896
lin@@ 894
produc@@ 891
iteit 889
gan@@ 889
buit@@ 885
ziet 883
groot@@ 881
ged@@ 879
Amerik@@ 877
6@@ 876
genoe@@ 874
verk@@ 871
eerd 870
pl@@ 870
var@@ 870
vert@@ 869
leven@@ 869
aak 869
werk@@ 869
elke 868
ver 866
gew@@ 866
nooit 866
oon@@ 864
0 860
ruim@@ 859
bre@@ 859
zeggen 854
mee@@ 854
mens@@ 852
19@@ 852
gelijk 851
hier@@ 849
mar@@ 849
ite@@ 846
bu@@ 845
the@@ 845
nu@@ 843
delijk 840
ers 839
9@@ 838
Al@@ 837
maken. 837
hebben. 837
tal@@ 836
ad@@ 835
chti@@ 835
Afrik@@ 832
Ver@@ 831
vra@@ 830
' 830
zelf@@ 829
iek 827
dt 827
goe@@ 823
keer 821
nodig 816
mensel@@ 815
hoor@@ 815
vand@@ 815
elkaar 814
zei: 811
energ@@ 810
eigen 809
wanneer 807
zit@@ 805
wat@@ 805
baar 804
m, 801
aam 800
sy@@ 800
eel 799
win@@ 798
On@@ 797
rel@@ 797
mat@@ 796
blij@@ 794
begrij@@ 793
kijken 791
el. 791
7@@ 791
ger 788
ff@@ 787
bedrij@@ 786
zie 786
kk@@ 786
ert 781
plaats 780
je@@ 780
syste@@ 779
dacht 778
samen@@ 776
draa@@ 776
ho@@ 775
eigenlijk 774
ontde@@ 772
ran@@ 767
cht. 766
plan@@ 766
steeds 765
hebt 764
ist 763
deel@@ 763
waarom 763
laat 760
belangr@@ 759
schijn@@ 758
land@@ 756
Toen 756
pen. 755
ven, 755
kwa@@ 753
pas@@ 752
worden. 752
Nu 750
jon@@ 750
! 748
delen 748
.000 748
altijd 747
vroe@@ 746
wetenschap@@ 746
weg 743
jaren 743
niet. 742
bere@@ 741
ding@@ 741
Mijn 740
ontwer@@ 740
ïn@@ 738
hen 737
miljoen 736
ere 736
geme@@ 736
ci@@ 734
ati@@ 732
zei 730
man 729
kor@@ 727
Ne@@ 727
waaro@@ 726
projec@@ 725
kin@@ 725
daa@@ 724
vraag 723
ijn 721
chts 721
hebb@@ 721
dat@@ 718
compu@@ 718
toe 717
ks 716
st. 715
teru@@ 714
vij@@ 713
best@@ 713
aan, 712
was. 712
groo@@ 711
tten 710
bep@@ 710
zei@@ 708
aantal 708
sc@@ 708
men. 707
leid@@ 706
vinden 706
zo'n 706
onderzoe@@ 706
wijl 705
wee@@ 704
to 702
kwam 702
lijke 702
U@@ 701
beetje 701
aar, 700
ders 699
tegen@@ 698
terug 698
kop@@ 698
eerde 695
ings@@ 694
; 693
werken 692
ch 692
bewe@@ 692
ieke 691
anders 690
ds 688
bare 688
moo@@ 687
mis@@ 683
alle@@ 683
Talk 681
iedereen 677
laatste 677
aanse 676
ouwen 676
zodat 676
mm@@ 676
goede 675
mani@@ 674
Die 674
noem@@ 674
verhaal 673
id. 673
Subtitles 672
Transcript: 672
foto@@ 671
twee@@ 668
vlie@@ 667
Op 667
00 667
nam@@ 667
cul@@ 667
wilde 666
gens 666
eft 666
het@@ 666
lich@@ 665
belangrijk@@ 664
ele@@ 663
gewel@@ 662
even 660
pra@@ 659
ër@@ 658
t? 658
kent 655
meest 655
elk 655
hoof@@ 654
weer 650
sne@@ 650
gebruiken 649
vertel@@ 646
t: 646
je, 646
ton@@ 644
land 643
probleem 643
vre@@ 642
com@@ 637
dol@@ 637
tor@@ 636
probe@@ 635
king 633
Indi@@ 632
ban@@ 629
mach@@ 629
es. 629
it. 627
zu@@ 627
lat@@ 626
net@@ 626
ep 622
oc@@ 619
was, 617
us, 616
log@@ 615
as 614
te, 612
spel@@ 612
fo@@ 611
ï@@ 600
ooit 600
2 597
id, 596
10 595
ts@@ 593
En@@ 593
organis@@ 593
val@@ 589
water 589
ens 588
ine 586
wi@@ 586
soor@@ 584
univer@@ 583
lig@@ 581
in. 578
te. 578
il 573
sa@@ 573
ank 573
stop@@ 571
pe@@ 570
ba@@ 568
leg@@ 568
econom@@ 563
es, 561
dit@@ 560
ou 557
gi@@ 556
mon@@ 556
Y@@ 556
qu@@ 554
boo@@ 552
struc@@ 550
ju@@ 549
del 549
Go@@ 542
or 541
fun@@ 540
publ@@ 540
heb@@ 537
prob@@ 536
ood 535
bas@@ 534
lar 533
um 530
h 527
50 521
enor@@ 521
In@@ 519
20 516
scha@@ 516
moment 515
soci@@ 512
ation@@ 511
ting 508
let@@ 506
open@@ 505
spe@@ 505
omen 505
Mar@@ 498
ast 497
isch@@ 497
We@@ 496
co@@ 491
rien@@ 490
pt 487
als@@ 486
ien 484
go@@ 484
rec@@ 483
st, 482
comple@@ 481
bli@@ 480
air@@ 479
Ch@@ 477
mp@@ 476
tion@@ 476
atu@@ 475
speci@@ 475
vraa@@ 474
wis@@ 473
St@@ 469
fin@@ 468
ment 466
olog@@ 465
rit@@ 462
An@@ 461
it, 460
mor@@ 460
ite 460
hor@@ 459
deren 459
3 459
evolu@@ 459
b 457
on. 454
polit@@ 453
Chin@@ 452
Ste@@ 450
les 450
pen@@ 450
gener@@ 448
ool@@ 445
stan@@ 444
tw@@ 442
t-@@ 440
progra@@ 439
minu@@ 436
fan@@ 435
mak@@ 433
are 433
8 433
real@@ 432
p. 427
200@@ 426
bra@@ 425
plane@@ 424
Ok@@ 424
inform@@ 422
arch@@ 421
on, 420
ren@@ 420
spec@@ 418
ame 417
tran@@ 416
len 415
ich@@ 413
oce@@ 411
1 411
tru@@ 411
pat@@ 411
fic@@ 410
an. 410
famil@@ 408
ome@@ 407
ty@@ 407
eigen@@ 407
uro@@ 406
in, 406
stre@@ 405
fer@@ 404
cr@@ 403
ys@@ 400
neer 400
stem@@ 398
ters 397
weten@@ 394
was@@ 394
materi@@ 393
gebru@@ 392
kind 392
gin@@ 392
ill@@ 392
stor@@ 391
sh@@ 388
stri@@ 387
6 386
studen@@ 385
zijn@@ 383
fl@@ 381
,@@ 379
dic@@ 378
contro@@ 377
ter. 377
sk@@ 376
simp@@ 375
wal@@ 374
medi@@ 373
verh@@ 372
ust 371
effec@@ 370
bor@@ 369
pri@@ 369
col@@ 367
ob@@ 365
act 364
mi@@ 364
ld 363
pu@@ 363
wan@@ 362
stand@@ 362
mand 361
elk@@ 360
4 360
20@@ 359
vide@@ 358
y, 356
30 356
Ma@@ 355
w, 354
100 354
stand 354
7 353
us. 352
data 352
fec@@ 351
New 351
tur@@ 351
nor@@ 350
ts. 350
cu@@ 350
To@@ 349
ali@@ 347
sin@@ 347
TED@@ 347
succ@@ 344
resul@@ 344
bur@@ 344
x 342
No@@ 341
don@@ 341
an, 340
ble@@ 339
dre@@ 339
posit@@ 338
theor@@ 337
maal 336
A 336
indi@@ 335
pe 335
experi@@ 334
ut 333
robo@@ 333
lim@@ 333
int 332
bro@@ 331
onge@@ 331
ir 330
tech@@ 328
mom@@ 327
roe@@ 327
og@@ 325
schien 324
biolog@@ 324
pan@@ 322
bar@@ 319
star@@ 319
zel@@ 319
mes 319
one 319
ak@@ 319
mb@@ 314
S 311
bet@@ 311
ied 311
én 311
cam@@ 310
ving 310
school@@ 310
wit@@ 309
tic@@ 309
% 309
h, 309
gl@@ 309
school 309
ag@@ 308
tit@@ 308
top@@ 304
r 303
ë 301
ris@@ 300
ate 299
cl@@ 297
00@@ 295
ieve 295
off@@ 294
cor@@ 294
belan@@ 294
plo@@ 291
roo@@ 291
me. 290
system@@ 287
cep@@ 287
volu@@ 285
am 283
indu@@ 282
ier 280
ari@@ 278
vir@@ 278
por@@ 278
ieder@@ 276
comp@@ 275
ed@@ 274
sor@@ 271
amp@@ 271
De@@ 270
fra@@ 268
disc@@ 268
acti@@ 268
rik@@ 267
dollar@@ 267
aat@@ 267
me, 266
miljo@@ 266
9 263
objec@@ 263
ate@@ 262
ijken 262
fac@@ 261
ca@@ 260
ator@@ 260
commun@@ 260
fa@@ 259
lec@@ 259
ws 258
ien@@ 257
secon@@ 255
dro@@ 255
waa@@ 254
bac@@ 253
o, 253
top 252
Le@@ 251
had@@ 250
natu@@ 248
solu@@ 246
itu@@ 241
hy@@ 240
stru@@ 239
gre@@ 238
y. 236
sion@@ 234
w. 234
presen@@ 233
ter, 233
my@@ 233
direc@@ 232
our@@ 232
lit@@ 232
ion@@ 229
cur@@ 228
pop@@ 228
design@@ 228
!@@ 226
pla@@ 226
duc@@ 223
ug@@ 223
zul@@ 223
vie@@ 222
Af@@ 222
cont@@ 221
ge, 220
ullie 220
din@@ 219
contin@@ 218
erg@@ 217
[@@ 217
ussen 217
car@@ 217
000 215
lar@@ 215
ó@@ 212
lie 211
ool 209
jo@@ 209
al. 208
ese 207
sm@@ 205
out 200
al, 200
è@@ 197
c 197
twe@@ 195
drij@@ 195
ric@@ 194
ssi@@ 192
lob@@ 192
sig@@ 192
gu@@ 191
ther@@ 190
ms 189
] 188
..@@ 188
s? 187
tho@@ 187
j 187
best 186
bil@@ 185
sub@@ 185
eri@@ 183
/@@ 183
plic@@ 181
half 181
ong 178
chan@@ 178
OK@@ 176
pol@@ 174
ans 173
ikkel@@ 172
wonder@@ 171
ts, 170
Th@@ 163
ce 162
re 159
hop@@ 159
ard 158
," 158
tri@@ 158
sol@@ 155
up@@ 155
grij@@ 153
ö@@ 152
'n 150
jec@@ 149
ies. 148
U 148
cap@@ 146
ill 144
ouden 144
ea@@ 144
The 144
form@@ 144
loc@@ 143
Ho@@ 143
design 141
ry 141
ning 141
pec@@ 141
ure 139
… 139
th 138
– 137
ph@@ 137
kno@@ 137
” 137
oun@@ 137
ase 136
mus@@ 131
“@@ 128
ge. 127
ar 124
z 123
cer@@ 121
C 120
verschill@@ 119
ffer@@ 119
pie@@ 118
;@@ 118
organ@@ 117
Su@@ 117
sim@@ 116
I 116
go 116
start 115
?@@ 115
’@@ 113
D 113
fi@@ 112
bus@@ 110
ies, 109
ic 108
le. 107
veer 106
lif@@ 104
sur@@ 104
iken 103
beur@@ 103
ins 103
ps 101
O 99
time@@ 99
the 99
V 98
ges 97
laat@@ 97
ch. 96
ed. 96
nec@@ 96
stic@@ 96
sho@@ 96
out@@ 95
é 95
igh@@ 94
cit@@ 94
lea@@ 94
se, 93
fig@@ 93
age 93
tal 92
le, 91
ational 91
ontw@@ 91
lot 89
ad 88
T 87
X@@ 87
dy 87
lon@@ 86
‘@@ 85
exper@@ 85
se. 84
ey@@ 83
ü@@ 82
v 81
xt 81
&@@ 80
nit@@ 79
ve, 78
ed, 76
all 75
do 74
ever@@ 72
Q@@ 72
are@@ 71
allo@@ 70
ation 69
be 68
ity 68
up 66
N 65
ago@@ 64
uni@@ 64
ses 63
ly 63
ture@@ 62
enc@@ 62
our 62
wn@@ 61
talk 60
fu@@ 60
pret@@ 59
P 59
show 58
get 57
tting 57
ice 57
ess 57
perc@@ 56
put 56
Wh@@ 55
ds, 55
mber 54
't 54
if 54
Ear@@ 54
nolog@@ 53
ome 53
abil@@ 52
ear@@ 51
ary 51
dri@@ 51
K 51
been 51
res@@ 50
its 50
ach 49
ack 49
than 49
ves 48
onom@@ 48
lik@@ 47
beet@@ 47
last 45
á@@ 45
low 45
down@@ 44
à 43
The@@ 43
ss 43
dec@@ 42
live 42
by 41
%@@ 40
B 40
these 39
right 38
time 38
my 37
ve. 37
under@@ 37
alk 37
ye@@ 37
ther 37
’ 37
righ@@ 36
ty 36
aga@@ 36
eig@@ 36
wing 35
char@@ 35
:@@ 34
ich 34
G 34
$@@ 34
X 33
E 33
cle@@ 33
wn 33
ima@@ 33
actu@@ 32
É@@ 31
ê@@ 31
can@@ 31
oul@@ 31
ish 30
]@@ 30
L 30
port@@ 30
ole 29
R 28
ound 28
wer 28
wh@@ 28
Bec@@ 28
Americ@@ 27
tle 27
betw@@ 26
partic@@ 26
shi@@ 26
chil@@ 26
ates 25
ys 25
any@@ 24
M 24
ce, 24
ble 24
ce. 24
Tran@@ 23
for 23
differ@@ 23
red 23
— 23
read@@ 23
see 22
í@@ 22
ation, 21
back 21
tion 21
plaa@@ 21
ó 20
her 20
nd 20
e's 19
Y 19
ight 19
plac@@ 19
,000 19
coun@@ 19
°@@ 19
ation. 18
soc@@ 18
percent 18
so 18
H 18
side 18
½ 18
can 17
sion 17
/ 17
pic@@ 17
real 17
scien@@ 17
ity. 16
F 16
Q 16
old 16
q@@ 16
”@@ 16
ful@@ 15
clo@@ 15
ell, 15
eds 15
scrip@@ 15
ture 15
Sub@@ 15
♫@@ 15
ally 14
comm@@ 14
way 13
day 13
ity, 13
ral 13
à@@ 13
Z 13
other@@ 13
J 13
ã@@ 13
spac@@ 12
oug@@ 12
happ@@ 12
♪ 12
ous 12
ations 12
fir@@ 11
W 11
how 11
long 11
$ 11
no 11
th. 11
) 11
ion 11
cour@@ 10
ï 10
more 10
ous@@ 10
need 10
off 9
twoor@@ 9
scri@@ 9
ould 8
+@@ 8
time. 8
ough 8
now 8
life 8
And 8
each 8
lear@@ 7
desig@@ 7
= 7
#@@ 7
ç@@ 7
kid@@ 7
thr@@ 7
ever 7
It 7
ñ@@ 7
quit@@ 7
+ 6
ligh@@ 6
ence 6
TE@@ 6
What 6
t's 6
down 6
very 6
use 6
ated 6
° 6
Now 6
ä@@ 6
human 6
able 5
² 5
worl@@ 5
ating 5
=@@ 5
then 5
suc@@ 5
Afric@@ 5
ll 5
say 5
 @@ 5
—@@ 5
she 5
reas@@ 5
were 5
ying 5
ň@@ 5
not 4
q 4
´@@ 4
`@@ 4
*@@ 4
It's 4
ys, 4
with 4
possi@@ 4
bit 4
@@@ 4
time, 4
Amer@@ 4
you. 4
This 4
ely 4
ked 4
work 4
here. 4
ical 4
have 3
–@@ 3
way, 3
led 3
incre@@ 3
¨@@ 3
¨ 3
ú@@ 3
will 3
sort 3
º@@ 3
buil@@ 3
ough@@ 3
fam@@ 3
body 3
tion. 3
^@@ 3
ò@@ 3
²@@ 3
mone@@ 3
you 3
£@@ 3
​@@ 2
@ 2
(@@ 2
` 2
They 2
That 2
…@@ 2
come 2
interest@@ 2
ways 2
countr@@ 2
ú 2
rom 2
î@@ 2
any 2
his 2
change 2
only 2
went 2
You 2
* 2
you@@ 2
½@@ 2
â@@ 2
ly, 2
ì@@ 2
He 2
look 2
at's 2
does 2
thre@@ 2
day, 2
people 1
lion 1
've 1
with@@ 1
comes 1
world 1
♪@@ 1
part 1
å@@ 1
import@@ 1
times 1
good 1
why 1
're 1
˚@@ 1
™@@ 1
º 1
peop@@ 1
say, 1
got 1
here, 1
through 1
‘ 1
it's 1
Ó@@ 1
¾ 1
self@@ 1
made 1
ved 1
ted 1
that@@ 1
try 1
beca@@ 1
I'@@ 1
devel@@ 1
ā@@ 1
“ 1
but 1
know, 1
big 1
ded 1
story 1
he 1
childr@@ 1
€ 1
less 1
